[PAD]
[UNK]
0
1
2
3
4
5
6
7
8
9
a
b
c
d
e
f
g
h
i
j
k
l
m
n
o
p
q
r
s
t
u
v
w
x
y
z
¡
¢
£
¦
§
¨
©
«
®
´
·
»
½
à
â
ã
é
ï
ð
ó
ö
ú
ÿ
œ
ƒ
ʻ
ˆ
‐
–
—
‘
”
„
•
…
‹
€
→
●
♀
♂
⚠
⚡
⛽
✨
❌
❤
➲
⬇
️
🌷
🏴
🏻
🏽
🐟
👇
👋
💀
💅
💋
💕
💖
💚
💛
💜
💝
💨
💸
🖤
😁
😂
😅
😊
😐
😑
😒
😓
😔
😕
😖
😚
😜
😞
😢
😦
😨
😩
😬
😭
😮
😳
🙁
🙂
🙃
🙏
🤍
🤕
🤦
🤭
🤯
🤷
🥲
🧡
🫠
🫣
not
just
like
feel
can
know
get
life
want
time
even
##s
now
will
no
people
really
one
don
ve
going
think
never
go
much
years
things
day
anxiety
back
work
still
got
help
also
something
cannot
anything
always
make
friends
way
since
good
year
every
everything
see
feeling
started
family
off
job
better
bad
last
anyone
right
need
take
someone
##ing
lot
long
thing
first
getting
nothing
well
felt
depression
thought
told
school
said
months
say
##ed
around
ever
went
person
anymore
live
made
love
trying
talk
days
try
hard
ago
everyone
end
away
find
else
pain
point
maybe
##d
health
tried
keep
care
able
wanted
week
times
new
tell
home
past
didn
friend
fucking
parents
many
little
two
enough
though
mental
sure
alone
worse
hate
mom
shit
stress
sometimes
actually
sleep
thinking
self
makes
thoughts
die
start
night
feels
left
without
another
done
old
best
##ly
come
happy
almost
mind
ll
pretty
symptoms
stop
head
used
give
world
kind
amp
living
weeks
put
wrong
probably
tired
relationship
month
reason
let
heart
normal
depressed
might
bipolar
scared
taking
today
hours
making
hope
look
doctor
us
re
lost
working
social
house
brain
different
dad
high
##y
bit
next
money
therapy
sorry
place
already
wish
others
understand
body
part
took
talking
found
post
whole
leave
due
issues
recently
etc
guess
looking
came
diagnosed
finally
least
meds
im
completely
doesn
stuff
wa
advice
suicide
seems
experience
happened
mother
problems
college
yet
suicidal
real
fear
constantly
read
change
panic
either
side
##er
move
remember
later
great
please
##e
gone
problem
##t
anxious
therapist
less
situation
bed
believe
may
ask
deal
call
kill
saying
fuck
stay
hurt
become
disorder
idea
medication
often
fine
together
literally
seem
sad
feelings
however
control
##r
asked
couple
sick
mean
matter
full
close
far
knew
future
wasn
weird
called
fact
support
haven
okay
basically
use
##al
10
usually
big
stupid
room
ended
episode
eat
guy
##n
avpd
state
afraid
decided
soon
father
sense
eating
stopped
honestly
girl
happen
x200b
extremely
manic
anyway
age
moment
seeing
attack
reading
coming
instead
worst
second
##a
cancer
small
worried
##o
gets
everyday
blood
single
death
phone
needed
boyfriend
##es
food
telling
hell
psychiatrist
course
thank
break
car
couldn
longer
says
chest
struggling
face
low
three
cry
isn
morning
thanks
worry
starting
story
hospital
currently
half
outside
kid
nobody
comes
goes
child
saw
wake
crying
gave
guys
whatever
barely
especially
moved
brother
short
entire
hit
energy
physical
nice
pay
##i
spent
fun
man
stressed
worked
kept
loved
truly
type
girlfriend
possible
worth
hear
wants
gotten
sex
constant
mood
seen
ill
god
idk
online
##able
issue
quite
weight
cause
helped
open
stomach
sister
study
hour
asking
broke
inside
met
won
writing
class
crazy
eventually
##m
enjoy
severe
horrible
angry
deep
died
knowing
##l
mentally
dont
stuck
20
fight
happens
kids
sort
lose
##k
healthy
diagnosis
ex
absolutely
free
rest
focus
taken
plan
became
emotions
doctors
hi
relationships
attacks
share
abuse
super
terrible
wanting
partner
spend
supposed
country
daily
late
lately
suffering
cut
minutes
early
emotional
forward
talked
true
along
mostly
rather
turned
30
behind
case
show
struggle
ha
human
18
difficult
fast
similar
young
fucked
play
reddit
words
despite
given
realized
moving
physically
seriously
losing
top
dead
negative
##ness
quit
trust
turn
amount
group
noticed
ok
deserve
15
caused
drive
illness
lonely
write
afford
serious
whenever
childhood
fall
personality
treatment
appointment
abusive
handle
eyes
towards
motivation
bring
huge
knows
walk
sleeping
dealing
easy
pressure
hand
several
woman
hold
changed
run
test
cold
hurts
important
front
mania
whether
dog
giving
positive
terrified
university
yesterday
depressive
mum
jobs
level
multiple
question
yes
major
reality
although
convinced
general
medical
middle
wouldn
alive
speak
mine
ones
lives
##p
dying
experienced
husband
leaving
suddenly
fault
trauma
lack
watch
except
shitty
##ment
looked
music
realize
thinks
chance
fix
happening
name
water
ways
##ity
current
heard
avoid
awful
https
##ic
waiting
sit
attention
career
drugs
empty
means
wait
learn
personal
mess
video
wondering
slowly
watching
unable
upset
##ion
check
contact
failed
lived
related
adhd
dream
older
broken
dr
killing
drinking
explain
parent
seemed
anyways
continue
conversation
stand
strong
episodes
experiences
none
period
playing
tests
hoping
meet
set
##ation
100
happiness
miss
straight
24
alcohol
helps
hey
process
somehow
within
finding
harm
listen
ptsd
##f
complete
dating
drink
sent
failure
figure
games
obviously
random
wife
12
answer
date
putting
##ive
clear
neck
order
effects
likely
takes
younger
hair
needs
accept
aware
definitely
light
must
cope
questions
sounds
born
miserable
oh
works
yeah
disease
sitting
tomorrow
apartment
married
##h
covid
exactly
guilty
looks
reasons
act
began
forever
helping
somewhere
certain
internet
suffer
extreme
interest
peace
son
stable
text
becoming
dark
example
id
immediately
passed
relate
##le
calm
causing
pass
term
amazing
medications
simply
summer
16
degree
hands
vent
driving
emotionally
lol
using
com
throat
trouble
adult
apart
easier
throughout
##c
attempt
space
managed
##nt
damn
tells
##ate
##in
buy
cant
experiencing
women
city
ending
grade
growing
hello
intense
interested
ready
step
useless
weed
wonder
19
blame
effort
honest
impossible
known
burden
daughter
keeps
male
sound
sucks
cycle
exist
forget
incredibly
insurance
skin
anger
clean
genuinely
bc
form
##ers
asleep
kinda
perfect
save
uncomfortable
easily
history
lamictal
psych
classes
exhausted
meant
quickly
across
dreams
information
loss
##g
community
imagine
mad
note
rant
reach
result
results
student
lie
liked
near
worrying
freaking
learned
nervous
woke
anybody
area
besides
hurting
lead
till
totally
dumb
fully
gonna
hang
skills
system
twice
guilt
research
selfish
badly
comfortable
listening
nearly
notice
possibly
brought
mention
safe
weak
##ist
cares
##st
##ting
apparently
appreciate
hobbies
ive
numb
symptom
walking
waste
aren
list
media
medicine
voice
forced
grades
manage
rent
running
company
eye
##en
beginning
cat
confused
four
treated
beautiful
lazy
police
response
smoking
studying
drug
purpose
toxic
50
comfort
common
exercise
fail
falling
funny
non
painful
stressful
wanna
birthday
dose
gives
poor
word
chronic
confidence
fit
harder
hated
headaches
normally
posting
society
supportive
developed
door
including
lower
sexual
shut
##or
11
breathing
memories
pick
account
add
desire
er
homeless
moments
office
simple
sub
13
busy
existence
helpful
lots
number
piece
pills
push
tonight
trip
##on
ability
allowed
anywhere
game
google
gym
keeping
minute
offer
pathetic
ugly
17
earlier
grew
hearing
ocd
sadness
struggled
worthless
##th
14
begin
children
drunk
force
ruined
##ine
changes
hopefully
memory
rate
visit
21
clearly
expect
fighting
hes
prescribed
professional
program
strange
##ry
##ted
doubt
grow
loves
mistake
paying
planning
send
shame
staying
treat
unfortunately
##est
##ful
##ies
##x
escape
finish
girls
lithium
main
overwhelmed
shower
trigger
unless
actual
basic
bf
breath
dropped
loving
med
pains
wrote
##u
bathroom
bunch
coping
english
follow
hopeless
led
mouth
nowhere
progress
smart
23
25
cared
cried
learning
meeting
www
choose
condition
considering
fake
killed
option
proud
seek
somewhat
stayed
survive
##0
##ating
function
men
properly
scary
semester
situations
town
truth
weekend
##ia
beat
fell
hide
mentioned
plus
willing
##am
##ling
clothes
hypomanic
january
nights
slow
teacher
understanding
usual
##w
breaking
choice
ideas
previous
regret
relief
spending
tl
youtube
##ally
##um
baby
background
hanging
mg
otherwise
teeth
touch
waking
##ar
##ch
bullied
calling
changing
generally
message
##an
##less
22
biggest
edit
extra
final
missing
mistakes
position
present
public
advance
annoying
appreciated
drop
hasn
ignore
joy
plans
store
value
##il
##ve
building
describe
kicked
muscle
risk
specific
tears
tips
abused
commit
december
lying
meaning
pandemic
smoke
tho
behavior
boring
lucky
obvious
overall
paid
speaking
throw
vision
##ated
##b
##ging
consider
considered
decision
exam
gt
holding
starts
sudden
allow
arm
art
boss
female
finished
line
quiet
schedule
seeking
suffered
various
wall
ass
beyond
bought
everytime
excited
figured
mild
missed
subreddit
surgery
team
##ping
anti
ashamed
based
checked
comments
effect
financial
following
frustrated
places
##tion
actions
business
decent
desperate
embarrassed
five
friendship
hole
jump
party
posted
regular
##id
##it
concerned
heavy
laugh
opportunity
per
showed
sign
##ized
active
cool
floor
improve
loser
overwhelming
reaction
stories
view
##re
bother
bpd
breathe
bullshit
caring
damage
insane
letting
successful
tough
triggered
context
esteem
everybody
mixed
courage
education
event
language
legs
respond
wasted
##ie
##is
alot
app
confident
disability
events
failing
large
options
paranoid
road
routine
slept
walked
##ism
debt
ends
express
headache
perhaps
spiral
##nce
disgusting
distance
doc
fat
forgot
manager
news
onto
uni
acting
bills
cost
difference
goal
terms
third
tv
##mg
expected
graduated
likes
relax
success
zero
##ant
40
awkward
causes
fairly
gain
habits
higher
isolated
lay
loud
members
pushing
socially
total
##led
##ure
addiction
black
calls
decide
gf
held
ignored
joke
nature
posts
pushed
ran
red
screaming
smile
spot
##ped
##us
breakdown
ear
monday
path
romantic
sensitive
seroquel
shake
siblings
slightly
turning
2020
absolute
average
crisis
deeply
excuse
freak
levels
loneliness
mirror
stressing
videos
wasting
##os
attempted
content
convince
edge
mid
overcome
periods
stick
urge
wonderful
##rs
appetite
computer
existing
feet
luck
messages
minor
rid
soul
trapped
turns
##ous
##pm
##ts
closer
coworkers
environment
forgive
infection
nbsp
pull
return
september
signs
antidepressants
decisions
entirely
grateful
hypomania
lasted
recent
tend
train
##ish
##ring
asshole
birth
boy
diet
graduate
insecure
nausea
occasionally
quick
ride
white
##ble
accident
comment
financially
goals
lymph
odd
potential
power
shouldn
strangers
ton
topic
typing
build
christmas
connection
crap
desperately
field
googling
interaction
messed
naturally
psychotic
rabies
repeat
sensation
sexually
sober
solution
##ious
##te
##ty
##up
affected
afterwards
attractive
caught
checking
destroyed
divorce
expensive
filled
humans
interests
massive
movie
nightmare
nose
picture
pregnant
respect
tested
upon
##5
##ge
becomes
catch
chat
functioning
intrusive
leaves
member
motivated
pretend
rarely
realised
regularly
service
shaking
##age
actively
air
apply
arms
autism
burning
continued
hot
income
mainly
provide
psychologist
showing
shows
studies
travel
admit
card
coffee
conversations
fair
grandma
medicated
october
phase
practice
productive
rare
reached
sat
strength
suppose
unhappy
vacation
##ably
##se
ahead
available
avoiding
book
books
compared
exams
friday
interesting
private
rejected
steps
therapists
##as
##king
access
activities
create
cutting
hardly
leg
lexapro
march
marriage
november
particular
passing
planned
racing
rough
ruin
sharing
shift
shot
spoke
struggles
tasks
thankfully
track
##ial
accepted
avoidant
brings
everywhere
fatigue
jealous
luckily
opinion
que
swollen
tiny
venting
##1
##ize
##ter
27
agreed
assume
awake
cuz
fired
maintain
palpitations
received
resources
severely
six
specifically
traumatic
zoloft
##ce
##ue
affect
cleaning
dealt
didnt
fears
friendships
gas
knowledge
laying
passion
perspective
prior
proper
saved
session
swings
##ities
bitch
chose
details
disappointed
earth
grandmother
knife
locked
loose
misery
necessary
particularly
personally
picked
pity
recovery
seconds
special
wear
##ible
##me
26
abilify
appointments
believed
bigger
credit
crippling
de
dinner
distant
ease
essentially
favorite
glad
hating
hiv
hospitalized
involved
realizing
ridiculous
shoulder
shy
##izing
answers
blocked
carry
closest
communication
ct
embarrassing
habit
matters
neither
regarding
relatively
staring
suck
title
##cing
##ged
##ming
achieve
action
clinic
emotion
exhausting
flu
focused
jaw
judge
majority
meditation
mri
realise
roof
sessions
shared
subject
universe
##ad
##ll
april
burn
cousin
fever
fog
freaked
hates
hatred
highly
idiot
interview
journey
latuda
local
lump
monster
ms
natural
project
refuse
removed
somebody
tldr
ward
##ance
##ck
##ned
##ze
60
anytime
basis
bear
capable
character
conditions
distract
grown
impact
isolation
moods
parts
pulled
randomly
refused
sore
street
syndrome
talks
tries
triggers
ultrasound
worries
##8
##ary
##ile
##red
2018
alright
august
bank
built
created
disappear
disorders
followed
gp
hadn
increase
nurse
patient
pointless
reassurance
recognize
scare
senior
tension
##2
##ual
addicted
apologize
ate
bored
breaks
bus
certainly
count
customer
dangerous
deeper
frustrating
greatly
gun
jokes
kick
leads
managing
meaningless
paranoia
receive
rejection
silly
smoked
suggestions
training
uncle
victim
watched
##ning
##ns
##sed
bedroom
bp
closed
email
emergency
evening
facebook
ii
incident
meaningful
minimum
overthinking
pictures
raised
sharp
survey
sweet
switch
tbh
ten
texted
throwing
tumor
tw
understood
##at
##sis
2019
bill
communicate
drank
ground
hitting
hung
lunch
meal
paper
perfectly
potentially
psychosis
regardless
stopping
threw
tight
##6
##ct
##io
apps
aside
brothers
circumstances
curious
directly
divorced
double
dread
endless
explained
friendly
groups
happier
math
na
pounds
projects
psychiatric
ruining
scares
sisters
snap
surprised
task
understands
unhealthy
upper
wellbutrin
written
##el
##ked
20s
awhile
battle
benefits
brief
consistent
correct
detail
dramatic
frequent
heal
hopes
ideation
increased
interact
muscles
opening
points
promise
reply
role
saturday
standing
stranger
teachers
thrown
yelling
##4
##ions
##ries
##ur
00
activity
attempts
aunt
awesome
balance
beating
blown
committed
countless
decade
drinks
enjoying
february
interactions
irritable
letter
participate
permanent
pm
rely
safety
sake
significant
source
sunday
ultimately
xanax
yelled
##ence
##ent
##et
##one
added
adults
believes
borderline
connected
develop
fill
hungry
insomnia
opposite
pill
rage
raise
shoulders
stability
states
stroke
unbearable
useful
##ical
##nd
##v
2021
admitted
appearance
breakup
btw
connect
conscious
consistently
dizzy
fire
focusing
gained
hiding
highschool
invited
obsessed
pdoc
pretending
rock
sending
spoken
threatened
treating
urgent
weren
win
window
##9
##ian
##ier
##ily
##ving
##z
000
200
affecting
bottom
chores
differently
disappointment
discovered
dizziness
effective
key
lied
node
pray
rambling
savings
sees
stage
stronger
taught
teenager
##ide
##im
##ma
##ne
##ors
##ot
##tic
28
address
attitude
bringing
bullying
center
despair
developing
enjoyed
gay
laughing
laundry
law
lifestyle
link
lt
management
mindset
officially
reaching
relatives
release
responsible
roommate
shop
stool
suggest
tingling
##ically
##ised
90
ages
approach
asks
attracted
bothered
chances
court
coward
coworker
diagnose
expectations
expecting
frequently
government
liver
lung
promised
quitting
react
record
restaurant
rn
scan
screen
seemingly
sports
surprise
thats
unstable
version
vulnerable
warning
##iness
binge
bone
consequences
cover
depressing
discomfort
dogs
hug
hyper
image
inner
isolate
limited
movies
needing
opened
peers
primary
raped
responsibilities
teen
texts
##les
##sh
ache
acid
acted
agree
alcoholic
annoyed
buying
cbt
connections
continues
cook
cruel
cycling
drove
exact
exercising
genuine
illnesses
info
initially
instantly
noticing
passionate
pattern
prescription
responses
scream
shape
suggested
swear
temporary
ups
violent
weekends
wise
wishing
##ay
##cy
##ising
##ke
##med
##my
##out
##ps
accidentally
according
belong
concerns
flat
flight
forcing
household
injury
insight
leading
mindfulness
offered
picking
possibility
prove
recommended
required
responsibility
rich
sadly
search
searching
series
solid
sun
toll
##ied
##ls
##ng
##ra
##time
##way
2016
2017
affects
aggressive
among
applying
bag
behaviour
bridge
circle
clue
concentrate
couch
desk
direction
dry
feed
forgotten
freedom
healthcare
heavily
ignoring
increasing
panicking
pregnancy
reduce
science
spiraling
switched
unemployed
url
visits
void
whatsoever
winter
##ments
##use
aches
addict
bar
cheating
co
complain
covered
creating
diabetes
disabled
fingers
foot
hypochondriac
improvement
independent
kinds
klonopin
million
nauseous
nodes
notes
overweight
pissed
plenty
poll
quality
refuses
returned
rude
shown
solve
suspect
torture
trash
worthy
yell
##3
##ding
##ire
##ut
abdomen
accomplish
awareness
complex
cough
counselor
crash
crush
cure
debilitating
ghost
goodbye
ik
lies
mode
opportunities
planet
rapid
spring
succeed
thus
typically
weakness
##rd
2022
applied
autistic
avoidance
blah
choices
darkness
described
drama
ect
familiar
foods
forth
hardest
hotline
kitchen
lady
lines
listened
nowadays
opinions
overly
pieces
porn
previously
requires
sensations
stops
sweating
table
texting
uk
ur
verge
waited
war
wearing
wedding
##fully
##pt
##ress
##sing
##ver
2nd
academic
aspect
claim
corner
ears
ekg
fresh
harming
homework
inevitable
june
laughed
license
lovely
machine
nightmares
occasions
panicked
ppl
pure
range
ray
saving
scheduled
shocked
shopping
slightest
slipping
spread
studied
teens
th
therefore
thursday
violence
visited
whilst
zone
##and
##ise
##ug
##yo
abroad
acne
addition
argument
benefit
bottle
bright
caffeine
cash
cheated
concern
deserves
destroy
dishes
dislike
dropping
dull
extent
finger
fixed
induced
july
mask
played
rash
relaxing
remind
rules
shock
shortly
sides
slight
sooner
tuesday
undiagnosed
wage
walks
workout
##7
##der
##een
##ering
##itis
##land
##line
##py
##wing
80
99
accepting
antidepressant
begging
behaviors
brush
cases
combination
conclusion
confusing
cooking
cops
deserved
destructive
disappeared
engineering
factors
fought
funeral
gad
gap
garbage
grandpa
granted
gross
hits
hobby
identity
improved
initial
internal
intimate
iron
irrational
lamotrigine
lockdown
lungs
necessarily
nerve
ordered
page
protect
reminded
round
separate
smell
staff
testing
types
wished
##ction
##lated
##ome
##sion
##tor
##tory
##ular
45
affection
appear
assaulted
attachment
bare
believing
block
bump
burst
controlling
counseling
dates
development
dirty
empathy
faith
fallen
gaming
googled
intelligent
irl
logical
manipulative
methods
military
mins
pays
prepared
psychological
rational
scenario
silent
size
sorts
strict
surface
threatening
trans
treats
truck
utterly
welcome
##bs
##de
##dy
##ip
##istic
##ium
##que
abnormal
arguments
blamed
blow
blue
chill
classmates
complaining
creative
dated
dentist
distracted
doe
emptiness
en
extended
fights
forgetting
generalized
gon
hallucinations
hotel
identify
inability
input
instagram
items
meals
mix
numbness
occasional
pleasure
prevent
prozac
psychology
recover
relative
sibling
socialize
stare
students
supported
techniques
typical
unfair
urine
voices
weekly
workers
##ach
##ain
##bing
##ched
##ep
##la
##rt
##ying
animal
ball
beaten
breast
compare
concept
continuing
damaged
deleted
drawing
drowning
earn
existed
explaining
explanation
folks
graduating
helpless
hypochondria
lmao
location
method
miles
nasty
noise
patients
plane
professionals
psychiatrists
pursue
rain
religious
remembered
report
resulted
retail
services
setting
speech
stresses
sucked
thin
twitching
website
wow
wtf
##bly
##da
##gy
##iate
##na
29
article
attached
begged
briefly
burned
cardiologist
complicated
conflict
core
cross
dance
diagnoses
dust
evidence
factor
flying
frankly
grad
grief
harsh
healing
holiday
holidays
hoped
hopeful
incredible
inpatient
instance
irritated
joined
jumping
legal
logically
lowest
migraines
neighbors
pack
paycheck
pulling
reflux
relapse
remove
security
silence
split
ssri
style
surrounded
teenage
terribly
trips
validation
virus
wash
wont
##acy
##hip
##ice
##ined
##ir
##ld
##ration
##unt
##uring
abandoned
abdominal
acceptance
accounts
advantage
amounts
anonymous
antibiotics
apologies
atleast
beg
bloodwork
bothering
box
burnt
cats
challenge
charge
cop
danger
drained
draw
driven
eaten
excuses
facing
freshman
frustration
include
judging
longest
massage
master
messy
moms
monitor
nearby
obsessing
outcome
overdose
phases
photos
pop
practically
proof
pulse
puts
rape
relaxed
remotely
secure
shooting
smaller
sobbing
substance
sugar
tendencies
thousand
thousands
tons
touched
triggering
tunnel
warm
waves
weather
wreck
ya
##atic
##ining
##mic
##pe
##sm
##sy
##zing
07
08
10mg
acts
ambulance
areas
blaming
boundaries
boys
club
cognitive
colon
color
confronted
controlled
correctly
dementia
depressants
diseases
doesnt
dollar
entered
evil
faking
false
feedback
forms
ghosted
glass
gut
hr
judgement
kidney
laptop
le
lymphoma
park
peoples
reads
responded
restless
scratch
sometime
song
standard
surely
swallow
taste
tear
tinnitus
tone
tooth
unknown
unlike
unsure
via
videogames
views
worker
##ard
##ath
##ations
##bed
##ics
##ists
##lly
##mission
##old
##rating
##ute
##zed
4th
aid
alternative
arrived
artist
assistance
associated
assuming
beliefs
bike
bleeding
bothers
combo
culture
dies
direct
dollars
dosage
doses
eachother
families
faster
former
grocery
hire
housing
join
match
mechanisms
names
nuts
overthink
owe
pace
pre
presence
recommend
religion
replied
rule
runs
scene
sell
socializing
solutions
stigma
stood
strongly
terrifying
thyroid
tongue
treatments
whose
##ability
##art
##ates
##ces
##ded
##ee
##ess
##go
##ight
##ite
##lbs
##ner
##om
##our
##rate
##ray
##ro
##ud
##ust
##ution
adderall
adding
adopted
afternoon
arrested
assumed
avoided
band
beauty
bet
brains
bye
capacity
cards
chore
clinical
clock
cute
dear
delete
delusional
denied
depending
despise
destroying
devastated
diarrhea
drag
dunno
elementary
engaged
fed
film
gift
grammar
hormones
hundreds
immediate
increasingly
individual
insecurities
introverted
kiss
laid
land
larger
maintaining
mechanism
motivate
permanently
punching
questioning
receiving
remote
secretly
shoes
significantly
skill
smallest
span
stairs
status
streets
tense
toilet
unlikely
vague
visiting
vitamin
wednesday
whoever
##dle
##logy
##op
##ward
31
3rd
500
amazon
assault
blew
blind
bully
cars
catching
choosing
cigarettes
click
costs
couldnt
customers
dependent
doomed
dude
eight
fade
fantasy
fits
grab
guessing
hangout
headed
heat
hometown
hopelessness
houses
improving
intimacy
invite
je
journal
la
lasting
lows
market
messaging
narcissistic
neglected
persistent
pet
pillow
pit
privacy
recall
recovering
reflect
rehab
reminder
sane
screwed
selling
sends
settled
shortness
subjects
tall
texas
theory
throwaway
tiring
tolerance
tolerate
traumatized
traveling
un
update
vivid
yo
##all
##asing
##ber
##cked
##ening
##her
##oo
##to
##uck
##work
32
70
acknowledge
als
animals
aspects
attempting
battling
begun
beside
blank
chaos
chatting
colleagues
confirmed
dads
data
delusions
depakote
department
disaster
doom
encourage
entitled
expressed
favourite
gallbladder
growth
ibs
incapable
kills
lesson
lights
literal
load
loan
manageable
neglect
original
participants
peaceful
penis
prefer
prison
realistically
recovered
referred
relieved
reminds
rescue
roughly
schools
shelter
sinus
someday
stays
strategies
tf
thread
ticket
vehicle
wave
wherever
withdrawal
zombie
##ced
##do
##ey
##ger
##ids
##lation
##light
##lled
##nts
##over
##pd
##per
##ss
##ured
##ury
2015
20mg
5mg
addictions
additional
allowing
bite
brave
burnout
cbd
chasing
church
comforting
confusion
crashing
critical
defeated
difficulty
disabilities
discuss
downs
dressed
eligible
employer
engage
envy
eu
exciting
finishing
guidance
haha
harmed
height
ideal
impulsive
internship
itchy
jail
jumped
marks
miracle
movement
mutual
neighbor
obsessive
parking
patience
pets
pointed
poorly
praying
preface
realization
repeatedly
resentment
resolve
responding
roommates
sanity
season
sight
skip
sleepy
sport
storm
sweat
temporarily
thesis
til
toward
transfer
trusted
turkey
underlying
verbal
vicious
walls
wisdom
##ak
##ap
##ast
##ative
##ha
##iation
##ience
##ient
##kg
##ks
##ms
##oke
##ol
##ons
##port
##sia
##ta
##ule
##un
##ved
300mg
abandonment
abuser
ai
antipsychotics
apathetic
attend
base
begins
belief
bleak
boredom
brutal
chosen
closing
counselling
criticism
crushed
cyst
demons
dick
downhill
downstairs
efforts
employed
enrolled
faced
facility
finds
fixing
fly
forum
functional
goddamn
greatest
groceries
guitar
havent
healthier
heaven
hired
hygiene
hypo
impending
instant
interviews
involve
junior
lab
label
lasts
lifetime
material
meantime
meltdown
messing
mornings
oldest
paralyzed
partners
pas
passes
patterns
payment
performance
prepare
prescribe
product
provided
race
regrets
relieve
resume
row
showering
sigh
signed
successfully
survived
swelling
teach
technically
thankful
tightness
tools
troubles
twenties
verbally
washing
workplace
yoga
##ack
##ah
##cate
##cent
##ds
##ern
##gle
##herent
##ines
##ncy
##ral
##tling
35
5th
adrenaline
aged
agitated
allows
answered
attending
automatically
basement
benign
bitter
board
bout
breakfast
bs
cancelled
casual
consuming
countries
crave
crushing
defend
derealization
disgusted
downward
drain
effectively
embarrassment
enjoyment
ensure
exists
exposure
fellow
finances
flash
foreign
gpa
gradually
grandfather
happily
hesitant
horribly
hurtful
ice
inadequate
ish
kindness
legitimately
lessons
listens
loathing
lock
loop
marijuana
mark
meanwhile
mentions
minimal
misdiagnosed
negatively
network
numerous
occurred
ongoing
outlet
passive
pc
pcp
peak
perform
pot
protein
reactions
reasonable
reject
relevant
request
rise
rush
secret
sentence
sh
shifts
site
sky
sorta
south
stabilizers
stone
supporting
surveys
survival
tech
thru
toys
traffic
trained
transition
unit
untreated
unwanted
vet
wasnt
whats
wishes
##aging
##ball
##be
##cking
##cted
##ff
##ft
##ified
##iling
##ipe
##key
##load
##ose
##rant
##stic
##tation
##ture
##uce
##ulated
##ves
1000
allergic
apologized
asap
beach
beer
bouts
breakdowns
breasts
brushing
cage
calmed
calories
charges
christian
clarity
commitment
confront
consent
constipation
contemplating
convincing
courses
crappy
creepy
criminal
cured
depth
driver
emails
emdr
enter
examples
excitement
external
fantasies
fiance
fish
gender
ghosting
guts
heck
imagining
immature
impulse
industry
inferior
intake
interacting
isnt
judged
liking
limit
loads
messaged
obsession
od
ofc
oral
outlook
partly
plain
preparing
presentation
raising
relaxation
remembering
repeating
roll
scars
schizophrenia
shouting
skinny
slip
smiling
speed
stabilizer
station
surviving
switching
sympathy
teaching
tip
topics
ugh
uncontrollable
utm
vs
wound
yard
##ans
##bling
##cs
##day
##ered
##iting
##ization
##ley
##lic
##lling
##mia
##od
##ow
##ude
##ures
150
1st
33
6th
8th
abusing
anime
answering
apathy
argue
assignments
belongings
benzos
bits
blog
bodies
bowel
brushed
butt
canada
cancel
celebrate
centre
channel
cleaned
clot
concerning
crashed
crawl
dbt
docs
drives
dysphoria
employment
enjoyable
euphoria
exercises
expressing
faces
fate
features
feeding
figuring
flashbacks
fool
forming
grand
grandparents
halfway
handed
heartbeat
humanity
includes
inflammation
intention
kicking
learnt
lifted
loans
midnight
mobile
monthly
motions
native
negativity
neurologist
nope
numbers
occur
org
organization
overreacting
painless
perception
petty
pls
poverty
precious
procrastination
prone
records
remain
remaining
reminding
require
resort
resulting
rope
scenarios
score
sexuality
sickness
sing
skipped
soft
songs
sought
sounded
spectrum
spite
stabbing
stem
stepdad
stretch
stutter
suffocating
supplements
supposedly
talent
traumas
um
unattractive
ungrateful
valid
values
visual
wind
##act
##ator
##back
##bit
##by
##cap
##cise
##ctive
##end
##ened
##gs
##hing
##iable
##ification
##inate
##inated
##ination
##its
##of
##pped
##ri
##tal
##tes
##ump
##va
##vation
acceptable
af
aspergers
attacked
beats
betrayed
blocking
blurry
bones
boyfriends
ceiling
characters
cheap
chemical
chills
companies
compassion
completing
contribute
cousins
disappoint
disconnected
discussed
discussion
dreaming
earning
easiest
elevated
encouragement
endured
exposed
famous
flow
forehead
gifted
grabbed
grasp
heading
hearts
hence
hundred
ig
imagined
immune
impacted
importantly
informed
innocent
insanely
instances
insult
intensity
invisible
irritability
isolating
kicks
lecture
manipulated
masters
mature
meditate
meetings
mothers
naked
neurological
official
oil
passions
pee
placed
player
pool
powerful
practical
pride
procedures
progressed
pushes
qualify
realistic
reckless
recognized
reference
repair
replaced
researching
ring
rooms
rushed
scale
searched
section
sensitivity
sertraline
shell
shirt
shoot
shots
spine
stated
stiff
swing
target
tends
terminal
travelling
tree
unrelated
urges
valuable
weigh
wild
wondered
wood
woods
##are
##eat
##gage
##gic
##hed
##hen
##iest
##ify
##ig
##ill
##iving
##no
##ny
##oi
##ore
##rass
##rated
##ric
##rified
##rm
##rn
##sexual
##tions
##tter
##ub
##ul
##ulate
##ulation
##umbled
##wards
##ways
30s
accused
acute
advise
antipsychotic
apologise
appealing
assignment
atm
bizarre
blowing
boat
booked
boxes
cake
carrying
clicked
cliff
climb
combat
competition
contract
contributing
cycles
daughters
decades
difficulties
diploma
distress
documentary
drawn
ecg
employees
endure
falls
fan
flare
foggy
fulfilling
functions
grip
handful
highs
hospitals
http
humor
inevitably
initiate
international
introvert
justified
justify
karma
knocked
lacking
latest
lbs
legit
length
leukemia
libido
loner
lumps
magic
minded
moves
onset
op
optimistic
originally
parties
partying
pile
practicing
president
produce
quote
ranting
referral
replace
returning
reward
roller
satisfaction
satisfied
scholarship
screamed
settings
shattered
shutting
snapped
spanish
specially
ssris
steady
strain
sweats
temperature
tiredness
traits
twitches
ulcer
understandable
unique
unmotivated
unnecessary
upcoming
vice
volunteer
wrists
##af
##als
##apy
##ba
##bc
##cial
##ending
##ents
##fy
##hood
##iating
##ils
##ins
##md
##mi
##ob
##oe
##ou
##oy
##pping
##press
##race
##rian
##ulating
##yrs
300
34
75
abandon
adulthood
allergies
appears
articles
asthma
backstory
balls
bi
biological
bleed
bond
bullies
calming
chain
classic
code
colleague
competitive
concentration
consumed
cptsd
cuts
darker
demand
depersonalization
disappointing
domestic
duty
ed
effexor
employee
excruciating
existential
expenses
fantastic
fatigued
finance
firstly
flirting
follows
fragile
fuckin
fucks
green
guard
handling
hateful
highest
holds
holy
immensely
inappropriate
iv
knee
letters
logic
lurking
ma
magnesium
marry
max
meat
movements
needless
objectively
obsessively
owner
pizza
positions
press
preventing
price
ps
punched
quarantine
rabbit
realising
recurring
remains
review
rot
route
salary
scratching
scrolling
semi
settle
shadow
sink
sneeze
specialist
stab
standards
stared
sticking
stubborn
summary
survivors
suspicious
swallowing
theres
threaten
touching
twisted
uncontrollably
utter
virgin
vomiting
wan
whereas
wide
wore
yay
york
zu
##ado
##ave
##bility
##ching
##cies
##ctions
##eet
##ets
##fs
##ht
##ively
##j
##ker
##late
##lessly
##logist
##mise
##ntial
##ok
##oked
##ology
##olved
##ously
##plied
##post
##row
##so
##thing
##tly
##udge
##ued
##ung
##uts
##well
36
absence
absent
achieving
alongside
anhedonia
apple
approval
approved
aspirin
assessment
aswell
bat
behave
biting
bullet
bumps
cannabis
careful
checks
chemistry
chocolate
claimed
clarify
client
committing
compulsive
confirm
couples
creature
cringe
crossed
curse
custody
depressions
devastating
diabetic
differences
digestive
dirt
dissociation
distraction
dive
doors
dorm
dreading
ele
encouraging
energetic
entering
excellent
excessive
exhaustion
faint
fearful
fearing
firm
football
foster
frozen
gerd
gi
girlfriends
gotta
gov
guarantee
hid
hidden
ibuprofen
identifying
images
immense
imposter
included
inconvenience
influence
instinct
institute
intensive
internally
involves
itch
joint
lastly
lean
lifting
linked
listed
mi
min
molested
nail
narcissist
nicotine
nonetheless
noone
nothingness
novel
olanzapine
openly
outcast
outpatient
paperwork
phobia
poetry
poisoning
popular
professor
psychiatry
ramble
rapidly
regards
relatable
released
replies
reset
resting
root
sales
se
sea
separated
shaky
shallow
shorter
shout
skull
sold
starving
stealing
sticks
stock
stressors
string
subtle
suffers
supervisor
tea
temper
tinder
tool
torn
trivial
trusting
unaware
unemployment
unmedicated
vaccine
vomit
vyvanse
windows
winning
withdrawals
wrist
##00
##ace
##ads
##algia
##but
##clusive
##co
##ect
##eral
##ery
##fect
##fit
##hit
##ifications
##ished
##itated
##ken
##kin
##ky
##lash
##mon
##nic
##pose
##q
##quently
##rain
##rative
##rier
##ten
##tery
##test
##ton
##tors
##une
##ush
##wn
##️
4am
9th
abilities
abortion
agoraphobia
aka
american
anxieties
apparent
army
ativan
attraction
auto
bachelor
bags
belt
boom
bound
campus
casually
cell
centered
chair
challenging
cheat
circles
claims
cleared
collapse
combined
commented
comparing
complained
compliments
consciousness
construction
continuously
corporate
cos
counsellor
cup
deals
dearly
deaths
decline
declined
describing
description
design
desperation
detailed
diary
director
discharged
disclaimer
distracting
dm
doubts
draining
dress
drown
dysfunction
eats
elsewhere
embrace
empathetic
explore
fantasize
favor
feb
fiancé
format
forums
frightened
gaining
gather
gray
grey
guide
handled
heroin
horny
hunger
impression
improvements
individuals
insulted
intentions
jack
jobless
joking
kissed
lift
lightly
limits
literature
loosing
magically
mail
manner
marketing
mass
mentality
metal
needles
nine
nonsense
nursing
nutrition
obsess
occasion
odds
offended
ordeal
orders
outbursts
participation
pessimistic
plate
pneumonia
pocket
privileged
proceeded
profile
providing
punishment
purely
pursuing
reacting
reassure
responds
restlessness
robbed
rollercoaster
ruins
safer
scans
scaring
sensory
sets
seven
shes
silently
sites
skipping
slave
sorted
spelling
spoiled
stars
stools
straw
stream
structure
superficial
supermarket
surrounding
surroundings
talents
tapering
threat
tied
trade
tragedy
tragic
tumors
twitch
unfortunate
upped
upsetting
upstairs
uses
wellbeing
wet
whining
withdrawn
wonders
worn
youngest
##ade
##aked
##atory
##bt
##erested
##ezing
##ges
##hs
##hy
##iative
##illing
##iment
##iny
##ipated
##iss
##istent
##italopram
##ition
##ix
##lam
##lies
##life
##mark
##mp
##nder
##og
##oil
##oluntarily
##oon
##pressed
##ptive
##ram
##res
##ried
##room
##rrow
##rted
##sa
##sd
##ses
##ship
##sian
##table
##tered
##ters
##ther
##ti
##tle
##tte
##ues
##ught
##uted
##vating
##´t
25mg
400
600
academics
accomplished
achieved
adequate
advocate
afterlife
alien
altogether
america
analyzing
approaching
appt
baseline
bath
bay
behavioral
belly
biopsy
blessed
bloody
brand
bridges
brown
buried
button
carried
cashier
cease
cheaper
chicken
chin
cocktail
collapsed
comfortably
communicating
completed
condom
contacts
counter
counting
crack
cramps
cravings
crushes
dare
daydreaming
deciding
demanding
depend
desires
destruction
dident
directions
discord
dissociated
distancing
dreamed
dysfunctional
encouraged
ent
entry
errors
escapism
eternal
extensive
finals
flags
floating
forces
fortunate
frame
freeze
fridge
fried
furniture
furthermore
gentle
giant
greater
grieving
grinding
hesitate
honesty
hospitalization
imagination
india
intelligence
intensely
intervention
keys
landed
laughs
laws
lawyer
laziness
mate
measure
moderate
motion
naive
nerves
net
neutral
noises
noticeable
nurses
obligation
occurs
ounces
outgoing
outsider
overwhelm
partially
perceived
persons
perspectives
plastic
plays
policy
politics
popped
popping
poster
posture
pounding
practitioner
procedure
promising
property
punish
punished
rationally
reassured
reassuring
recommendations
reduced
reliable
replying
resist
respectful
ringing
risky
robot
rooted
sabotaging
sacrifice
scratched
screw
script
soo
spinning
static
strained
subconsciously
substances
sufferers
surprisingly
talented
tendency
terror
thick
thigh
tiktok
uber
uncertainty
unpleasant
users
versa
websites
worsened
wrap
youth
yrs
##ages
##ational
##bi
##board
##care
##cks
##des
##dling
##ex
##fied
##friend
##ginable
##hetic
##hh
##ibility
##ibly
##ift
##ility
##ime
##isting
##ited
##lities
##loat
##mo
##ncing
##ngle
##ots
##phic
##ption
##raft
##rained
##rance
##ranged
##ringing
##rosis
##rous
##rry
##set
##siness
##tate
##tility
##tive
##uing
##uition
##ult
##unk
##vate
##ven
##vision
##vity
##ÿ
100mg
11th
12th
2011
3x
accurate
acquaintance
admittedly
adolescence
affair
album
aneurysm
appeared
attended
backs
beforehand
blames
blessing
bp2
breaths
bro
careers
chase
classmate
clenching
climate
clingy
closet
cloud
coincidence
coma
comparison
confidential
contacted
convenient
cream
curiosity
cus
deadline
define
deleting
denial
detached
dragged
dragging
entertain
entrance
epilepsy
essay
euphoric
excluded
expression
flipped
fuel
gaslighting
goodnight
graduation
grave
groin
hall
happiest
haunted
headphones
hollow
homelessness
horrific
horror
hrs
humiliating
hypersexuality
illegal
inch
inducing
insignificant
insults
intestines
irresponsible
item
jerk
john
joining
joked
junk
lips
liquid
manipulation
matched
maths
mattered
meditating
medium
meh
milk
modern
mono
neighborhood
north
obese
omg
overcame
pages
panicky
patch
pcos
permission
platform
pmdd
prescriptions
privately
programs
progressive
promises
proven
puberty
raw
reaches
reasoning
recorded
reflecting
reflection
regard
relying
repetitive
reputation
resent
ripped
rising
river
ruled
rushing
schoolwork
scientific
seat
seizures
spells
spends
spiritual
stands
starve
stolen
subsided
sucking
suggestion
supports
suppress
survivor
suspected
swimming
tearing
technology
terrifies
torment
tricks
tumour
twitter
typed
united
unlovable
untill
unusual
usa
van
victims
virtually
visible
weaker
wheel
woken
wouldnt
zyprexa
##active
##ading
##ane
##anxiety
##aps
##ase
##away
##bate
##ca
##cated
##cess
##ciated
##ecting
##ek
##elt
##erate
##erence
##eria
##ew
##ference
##head
##ho
##icking
##inished
##ionship
##lay
##let
##lete
##like
##lim
##man
##mer
##mos
##ney
##ois
##ory
##ost
##oting
##ox
##plant
##posed
##quent
##rary
##right
##rine
##ris
##rise
##rive
##riving
##rving
##ster
##tain
##take
##tantial
##tering
##ucks
##ucted
##ugh
##ui
##uit
##ument
##uments
##ums
##ural
##used
##vable
##wind
##years
180
40mg
48
7th
accompanied
aching
acquaintances
adds
admitting
advanced
alarm
albeit
annoy
antisocial
appendicitis
applications
appropriate
arrogant
articulate
bail
balcony
bald
bearable
benzo
bio
bloating
boxing
bp1
bpm
buddy
california
charity
checkup
cheek
childish
chronically
cocaine
comprehend
concert
confessed
consultation
cortisol
craving
curl
cursed
dae
dallas
darkest
dedicated
defense
definition
degrees
dehydrated
dental
deny
depends
determined
disappearing
discovering
discussing
disturbing
ditched
dopamine
doubting
dozens
dumbass
dvt
egg
engaging
entertainment
equally
established
examination
explode
fathom
fiber
filling
filter
fixated
flag
flashes
fortune
foundation
freezing
fulfill
fund
fundamentally
funds
gatherings
genes
germany
glasses
gratitude
gums
hallway
hardcore
horrendous
imaginary
impatient
incompetent
independence
infected
infront
injuries
insecurity
introduced
invested
jfe
joe
ketamine
knock
latter
league
lease
leech
lets
lifelong
lifes
limbs
loudly
lover
magical
makeup
manifested
mentioning
mere
meth
mexico
migraine
minds
mini
moral
mucus
murder
navigate
neighbour
object
officer
ordinary
organic
overnight
papers
paragraph
paths
payments
pdf
perceive
percent
pins
polite
por
portion
positivity
pound
praise
productivity
professors
puppy
qualtrics
recognition
refer
references
refusing
relating
remained
repeated
resentful
resolved
resource
respected
restrictions
sa
sack
scam
scored
seasonal
secondary
serve
severity
showered
sinking
sized
smiled
smth
software
sophomore
sorrow
spare
spreading
stages
stimulation
subconscious
supply
sv
tag
talkative
tax
taxes
temple
tie
tms
traditional
transportation
traumatizing
trial
trick
twenty
twinge
uncertain
undergrad
variety
veins
warehouse
washed
witness
witnessed
workload
worsening
##5lbs
##acted
##ady
##ality
##apist
##arable
##atologist
##aved
##azepam
##beat
##bid
##biotic
##bo
##born
##case
##chy
##don
##edly
##ees
##eets
##ency
##ensive
##eted
##force
##found
##geous
##gling
##hd
##iant
##iates
##ica
##ich
##ick
##iled
##ilities
##ink
##ional
##iring
##irty
##ital
##itary
##itation
##ives
##ket
##lid
##lier
##lish
##lo
##lt
##mate
##mics
##mm
##mom
##mt
##nal
##nant
##nny
##nspired
##oes
##olerable
##omy
##ord
##orms
##parable
##phobic
##phone
##pire
##ple
##point
##rading
##ras
##rds
##read
##rial
##rieve
##rim
##rin
##roid
##rupted
##sist
##sive
##the
##tt
##typical
##uation
##urge
##vant
##vated
##verse
##ye
##zo
18th
200mg
2023
50mg
72
abusers
abyss
academically
accommodation
acknowledged
addicts
additionally
advised
agony
agrees
alienated
allergy
ambition
ambitions
angel
ankle
application
arguing
arrest
assured
attacking
attribute
attributed
au
authentic
barrier
beloved
beneficial
bible
blocks
bob
bomb
brick
budget
burdens
candy
careless
chapter
chess
chips
cities
closely
clothing
coaster
commute
concrete
confrontation
consume
contacting
contain
continuous
contracted
contrast
corpse
coupled
coz
cracked
crawling
creativity
criteria
crucial
da
deadlines
deadly
decrease
delusion
designed
destination
deteriorating
discouraged
disgust
display
dissociate
distractions
ditch
dozen
dumped
echo
educated
ego
encounter
endoscopy
enemy
erase
errands
es
europe
evaluation
eve
evolved
exchange
exclusively
exes
existent
expects
expense
explains
facial
facts
fatal
fatty
feared
fleeting
freelance
french
gag
gaslight
gastritis
generation
generic
gently
guessed
hallucinating
harassed
harmful
heightened
hermit
hideous
hill
hip
holes
homophobic
hook
ich
icu
immigrant
inherently
injured
insisted
insulting
intentionally
jesus
jokingly
judgemental
kidneys
labor
lash
library
lined
located
majorly
melanoma
melatonin
meningitis
mile
millions
miraculously
mission
model
moody
muster
mute
named
nap
national
needle
needy
netflix
objects
occupied
offering
offers
olds
opposed
outta
overdosing
pants
paxil
persona
pharmacy
phones
photo
physician
piling
piss
pisses
pots
pouring
pressuring
prevents
primarily
processing
procrastinating
puke
punch
purposely
pussy
reducing
relates
relentless
retirement
rib
rights
ritalin
romantically
salt
scarred
screwing
serotonin
shook
skilled
sleepless
slipped
slit
smoker
sole
solely
solitude
speaker
spiralling
spots
steal
steam
stepping
stimulants
storage
stores
strip
subs
sustain
tattoo
technique
tender
testicular
therapeutic
threats
trileptal
und
unlucky
user
va
vaping
visa
vitamins
warmth
whim
wikipedia
willpower
writer
yea
##action
##aking
##amping
##ax
##bating
##charge
##cm
##cting
##cussion
##dding
##den
##di
##ea
##ective
##ente
##eo
##erated
##erd
##ere
##ese
##ester
##estinal
##ffed
##fficient
##fication
##fing
##ga
##gain
##gitation
##grade
##grate
##gression
##ik
##ilation
##iming
##inary
##inating
##ings
##ionally
##ior
##irst
##isation
##ister
##itize
##ived
##law
##lder
##liant
##lice
##lity
##liver
##lude
##mail
##matic
##mma
##nced
##nch
##ncies
##oid
##oking
##olar
##olves
##ool
##ower
##pes
##phobia
##piration
##raction
##rew
##rist
##rize
##rnal
##round
##rse
##scent
##sisted
##son
##teen
##tension
##tical
##tigate
##tled
##ttentive
##ually
##uary
##uating
##ugged
##ulations
##ulti
##umping
##umption
##unted
##uous
##ups
##urer
##val
##vasive
##vil
##zes
01pm
1am
2012
2013
2014
24m
2x
38
39
3am
800
accomplishments
ad
alcoholism
alert
ambitious
announced
appartement
appeal
applies
arts
battery
bawling
bd
becouse
beings
bladder
bled
bragging
brat
bruise
bug
bugs
bursts
bury
buspar
buzzing
camera
cardiac
carefully
cci
challenges
chemicals
chunk
clients
closure
clouds
colds
complains
con
confirmation
conquer
cookies
corona
crime
crumble
cuddle
cue
daddy
declining
decreased
default
depressant
describes
deteriorate
dig
dismissed
dismissive
distanced
downwards
drifting
ekgs
exaggerating
excessively
exit
extrovert
facade
failures
fancy
farm
fathers
figures
filed
flaws
forgiveness
formatting
fraud
fruit
furious
gabapentin
genetic
german
grams
gum
handsome
headspace
hears
heartbreaking
helper
hero
hint
hpv
hugs
humiliated
hypothetical
ideally
ideations
ignorant
ignores
incurable
indeed
independently
infections
inherited
insanity
institution
jewish
joints
journaling
judgment
juice
kissing
kms
ladder
layer
liar
links
longing
lyme
mall
manifest
masking
mastery
mdd
medically
medicate
memes
merely
mildly
module
morbid
muscular
necessity
nonstop
notices
obtain
ocean
organized
oriented
overcoming
overtime
painting
para
parasite
parental
parkinson
philosophy
phrase
physics
pig
pimple
plant
playlist
polar
political
population
pressing
pressured
priority
pro
progressively
prolonged
promote
promoted
protection
psyche
psychopath
psychotherapist
psychotics
purchase
qualified
qualities
races
radio
rationalize
realisation
reduction
relapsing
relation
reported
requested
resigned
rested
revealed
ridiculously
rip
risperdal
rocky
rotting
rumination
senses
separation
shameful
shrink
singing
smarter
smashed
sobriety
sources
spasm
spiraled
spit
square
star
stating
stems
stripped
stupidly
superior
sympathetic
technical
teenagers
temp
tempted
tiniest
toxicity
transferred
transgender
tremendous
tremendously
tremors
tutor
ultimate
unbelievably
uncommon
unexpectedly
unprotected
unsafe
valentine
vegan
vibe
village
virtual
vraylar
web
weights
wired
wits
worthlessness
yellow
yr
##0mg
##50
##adol
##air
##ake
##ale
##anic
##antly
##apear
##arm
##asy
##atch
##atively
##awn
##book
##bound
##break
##cardia
##cast
##cating
##chat
##cher
##cia
##cite
##cope
##cp
##cro
##ctable
##cture
##cuse
##cycle
##dering
##dled
##els
##ement
##estion
##filled
##gled
##gram
##gulation
##gun
##harm
##hering
##hew
##hi
##hobia
##how
##hr
##ially
##iar
##iated
##icated
##icle
##ield
##if
##ifted
##iful
##int
##ips
##itive
##itty
##kes
##lands
##lap
##last
##lines
##liness
##lm
##lon
##lowed
##lves
##mbling
##mised
##mit
##mpathize
##nate
##ncoming
##nda
##ners
##nol
##nomy
##nosis
##nse
##nsual
##nual
##oc
##ointed
##oluntary
##olve
##oped
##organized
##ote
##otes
##oth
##otor
##ours
##outs
##pal
##pecified
##plicitly
##ply
##ptic
##ract
##rank
##rator
##rdia
##rick
##rily
##rious
##rity
##rky
##rupt
##rying
##sal
##serving
##si
##sible
##side
##sists
##ths
##thy
##ties
##top
##uate
##uated
##udes
##uish
##ulsive
##umb
##umn
##urb
##usion
##uting
##vert
##vid
120
21f
900
911
absurd
accidents
adjust
adjusted
agency
ah
align
amongst
annoyance
anyhow
apologizing
assigned
associate
assure
attendance
audio
aunts
autopilot
bachelors
backed
backpack
behaved
behaviours
belonging
ben
benadryl
bites
blanket
bloated
blunt
bonus
boost
bpii
bruises
bubble
bubbly
butter
calmly
carefree
chaotic
charged
chemo
choke
cholesterol
claiming
classroom
climbing
clinically
clown
clubs
colonoscopy
commited
commonly
como
compatible
compliment
concluded
conclusions
conflicted
conservative
contributed
copy
creep
creeping
damaging
damned
dancing
dat
decides
deemed
defective
deficiency
delay
dent
deprived
determine
device
diagnosing
digital
directed
disagree
discipline
distressed
disturbed
donate
drastically
drs
dudes
echocardiogram
editing
eg
eliminate
emailed
engineer
escaping
et
eternity
exception
executive
expand
expectation
faded
fiction
fields
films
florida
fluoxetine
followers
forest
formed
fortunately
freely
frequency
garage
generous
grandiose
graphic
guaranteed
guns
harassing
healed
heartburn
hernia
hiring
holter
hooked
hormonal
hugged
hurry
hyperventilating
ie
illusion
incorrect
indian
indifferent
indirectly
instructor
intermittent
interviewed
invitation
ipad
iq
ironic
ironically
jan
jealousy
judgmental
juggling
killers
labels
landlord
lashing
leader
lengthy
lifeless
limiting
loaded
loyal
lupus
lurker
mais
managers
medicating
mediocre
mei
misses
misunderstood
mold
mountains
nagging
nah
nephew
neuro
notion
objective
observe
occurrence
opens
operation
outcomes
overload
overworked
owed
owned
oxygen
paint
pair
pancreatic
participating
peer
performing
perpetual
pic
pics
plagued
pleasant
poop
pos
prayed
preferred
pretended
procrastinate
products
programming
prospects
protective
proved
provider
provides
questionnaires
radiation
rapist
rashes
rat
reacted
recording
renting
researched
resign
retain
retarded
retire
rinse
risking
roads
rotten
rut
samples
scariest
schedules
scheduling
schizoid
schizophrenic
scholarships
schooling
scores
sedentary
seeker
seizure
sentences
shed
sheer
shits
shocking
shuts
signing
sleeps
slower
socialise
soooo
spark
spirit
stabilize
statement
statistics
steadily
stimulant
strangely
strategy
stressor
strike
strongest
succeeded
supplies
surgeries
taller
taper
tdcs
teams
testosterone
thc
theme
thirsty
threshold
throws
tickets
ties
tore
transparent
trap
trough
turmoil
unavailable
unreal
unrealistic
unreasonable
unwell
unworthy
vaccinated
vertigo
viewing
volunteering
whatnot
whore
wiki
worthwhile
wounds
zaps
##25
##ab
##abling
##ache
##ambles
##amp
##aneously
##ants
##apine
##ards
##ately
##ather
##athy
##atoes
##bable
##bolism
##bone
##bow
##boy
##bration
##cause
##cending
##ches
##cious
##cle
##cles
##culus
##datory
##dening
##dered
##dest
##done
##dr
##ducing
##ear
##ected
##elf
##em
##ene
##ens
##erating
##etic
##fire
##form
##gate
##geration
##gia
##gies
##gin
##gue
##hal
##hale
##han
##headed
##hole
##iac
##icate
##icative
##icator
##icles
##iction
##idate
##idation
##iden
##igent
##ilant
##iles
##inct
##inine
##irt
##ishing
##istics
##itch
##ius
##iv
##lawed
##ler
##lex
##liche
##lihood
##lin
##loading
##lob
##lot
##lour
##lta
##luding
##lve
##mates
##mation
##mente
##mh
##min
##mine
##nails
##nb
##nces
##nding
##ndo
##nds
##nial
##nie
##nolol
##ntent
##nually
##oam
##ocks
##oding
##ography
##olic
##ological
##olving
##ones
##ony
##ooled
##oor
##oot
##orm
##orn
##otion
##ound
##oured
##ove
##owed
##owney
##pass
##pend
##ph
##phant
##phere
##playing
##rable
##range
##rates
##rators
##rayal
##real
##reated
##reddit
##rel
##rifying
##rising
##rms
##rve
##self
##servation
##shing
##state
##struct
##talking
##talling
##term
##through
##tigating
##tious
##ubbed
##ubby
##ucking
##uctive
##udo
##uge
##uh
##uiz
##ula
##ulitis
##ulous
##uman
##uminate
##uns
##urity
##urred
##urt
##uses
##uss
##utch
##utes
##uzz
##valuate
##vent
##versal
##victed
##ville
##vour
##we
##wed
##yi
##yy
##za
10th
130
250
2am
30th
37
5am
633
95
abruptly
accusing
achievements
adopt
adore
adverse
affirmations
aforementioned
aids
allowance
alt
alternate
analyze
anemia
anonymously
anorexia
appearing
approximately
armpit
arrive
arthritis
aspirations
assist
assistant
audience
australia
autoimmune
bang
bars
bedridden
bell
beta
binging
blackout
blade
blur
booze
bottles
bowl
brag
bread
browsing
buspirone
calf
calms
cancers
can´t
characteristics
charismatic
chatted
cheer
cherish
chooses
circumstance
clearer
clonazepam
cluster
cm
coin
collection
comforted
compensate
compensation
compete
complaints
complications
confide
connecting
consciously
contest
convo
coordination
coped
corps
cowardly
cps
creator
cries
crippled
criticize
critics
crowded
crumbling
cyclothymia
dan
daydream
debts
decently
dee
devices
digging
discount
discover
draft
drivers
driveway
dump
earliest
earned
edu
elara
electric
emotionless
endlessly
engine
equation
equipment
equipped
era
erection
essays
evenings
exaggerated
extend
fails
fainting
feeds
fifth
fitness
flashback
flesh
flip
flower
forbidden
fourth
fullest
fundamental
fwb
gang
garden
ged
gifts
gods
golden
grind
grounded
hantavirus
harmless
haunting
haunts
heated
heavier
heels
hesitation
hindsight
hood
hooking
hs
hugely
huh
humble
hunting
husk
hydroxyzine
identified
ignorance
impacts
importance
inches
incidents
indulge
infinite
ingredients
insert
intend
intended
intentional
interacted
invalidated
invites
involving
irony
itching
japanese
justice
kg
kidding
killer
kindergarten
knees
kratom
ladies
languages
largely
layers
leadership
legally
legitimate
lesser
limbo
lit
locker
lonelier
lord
lucid
lyrics
madness
maine
maintenance
manipulate
matches
mcdonald
measured
meets
mia
midst
mindful
mirtazapine
mocking
mole
moon
mountain
mundane
murdered
musician
narc
narcissism
navy
nevertheless
newly
niche
nightly
nothings
numbing
obligations
obnoxious
offline
operate
organs
orgasm
ounce
overbearing
oxycodone
pacing
painkillers
panel
parenting
partial
passively
pd
peacefully
phenomenon
picks
positives
possessions
presenting
prevalent
proceed
processed
profession
progressing
progression
prolong
prom
prospect
protected
psychologists
psychosomatic
pto
pub
pulmonary
pursuit
questioned
quietly
racist
recognise
reconnect
refill
regulate
reliving
replacing
reports
restaurants
restraining
returns
reviews
rice
rides
ridicule
riding
ripping
rolled
rubbing
ruminating
s2
sabotage
san
sarcoma
scar
scattered
scroll
scum
sedated
semblance
semesters
ship
shouted
similarly
sis
slew
slut
smokes
sneak
snow
soccer
socialization
soulmate
speaks
specialists
spin
spotify
spouse
ssdi
std
stepped
sting
stray
streaming
stuffy
subjected
sufferer
sufficient
suis
suitable
sunshine
swore
systems
tablets
tale
tangible
tap
testimony
textbook
thanksgiving
therapies
tingly
tmj
toss
tour
trail
trains
trait
trazodone
trees
trend
tryna
uccs
uh
ulcers
ultra
unconscious
undergoing
underneath
unexpected
unhelpful
universities
unloved
unpaid
vacuum
vaguely
validated
vanish
vast
viewed
virginity
vodka
volume
warranted
wears
weighed
weighing
west
wether
whiny
wil
wine
worlds
wrecked
wrestling
â€¢
##¡
##¢
##£
##¦
##§
##¨
##©
##«
##®
##´
##·
##»
##½
##à
##â
##ã
##é
##ï
##ð
##ó
##ö
##ú
##œ
##ƒ
##ʻ
##ˆ
##‐
##–
##—
##‘
##”
##„
##•
##…
##‹
##€
##→
##●
##♀
##♂
##⚠
##⚡
##⛽
##✨
##❌
##❤
##➲
##⬇
##🌷
##🏴
##🏻
##🏽
##🐟
##👇
##👋
##💀
##💅
##💋
##💕
##💖
##💚
##💛
##💜
##💝
##💨
##💸
##🖤
##😁
##😂
##😅
##😊
##😐
##😑
##😒
##😓
##😔
##😕
##😖
##😚
##😜
##😞
##😢
##😦
##😨
##😩
##😬
##😭
##😮
##😳
##🙁
##🙂
##🙃
##🙏
##🤍
##🤕
##🤦
##🤭
##🤯
##🤷
##🥲
##🧡
##🫠
##🫣
