[PAD]
[UNK]
!
"
#
$
%
&
'
(
)
*
+
,
-
.
/
0
1
2
3
4
5
6
7
8
9
:
;
<
=
>
?
@
[
\
]
^
_
a
b
c
d
e
f
g
h
i
j
k
l
m
n
o
p
q
r
s
t
u
v
w
x
y
z
{
|
}
~
 
£
«
´
·
»
½
à
ä
é
ï
ö
ú
ʻ
ˆ
–
—
‘
’
“
”
„
•
…
→
⏳
●
☠
☹
♀
♂
⚠
⚡
⛽
✅
✌
✨
❌
❤
➡
➲
⬇
️
🌷
🏴
🏻
🏼
🐰
👋
💀
💅
💋
💕
💖
💗
💚
💛
💜
💝
💨
📷
🖤
😁
😂
😅
😊
😐
😑
😒
😓
😔
😕
😖
😚
😜
😞
😠
😢
😣
😦
😩
😬
😭
😮
😳
😹
🙁
🙂
🙃
🙄
🚩
🤔
🤕
🤦
🤩
🤫
🤭
🤯
🤷
🥕
🥰
🥲
🥺
🧡
🫠
🫢
🫣
to
and
the
my
of
it
that
me
in
is
not
have
but
for
was
this
am
with
do
so
just
like
on
be
you
or
feel
about
at
all
because
if
out
can
as
been
had
they
know
what
he
up
when
get
she
want
life
time
even
myself
are
would
now
##s
how
will
from
her
people
no
really
one
there
an
ve
don
we
more
them
think
has
going
some
go
being
never
much
things
day
then
years
did
only
who
anxiety
back
could
any
after
got
still
him
work
also
something
help
cannot
by
which
anything
way
always
other
make
over
friends
too
since
very
year
good
feeling
into
see
every
everything
than
started
your
family
last
here
off
where
were
again
need
better
anyone
right
bad
before
having
why
job
its
someone
take
few
through
told
nothing
thing
first
lot
said
getting
##ing
down
thought
his
felt
long
well
say
doing
ever
person
these
love
went
around
school
depression
made
##ed
does
months
talk
while
anymore
most
their
days
live
trying
end
try
should
hard
health
ago
away
everyone
point
find
maybe
else
keep
pain
care
tried
week
friend
new
wanted
tell
same
able
past
didn
##d
fucking
two
times
many
mental
enough
die
parents
though
own
little
thoughts
worse
home
sure
alone
actually
sometimes
mom
our
thinking
shit
until
hate
makes
sleep
start
feels
left
night
self
stress
mind
stop
another
happy
almost
done
best
come
old
##ly
weeks
head
tired
kind
those
used
put
give
without
symptoms
world
doctor
let
pretty
living
probably
month
heart
ll
wrong
relationship
scared
today
reason
bipolar
might
making
amp
taking
normal
brain
depressed
look
us
house
once
dad
working
therapy
wish
bit
hours
money
body
others
next
place
high
re
lost
hope
already
sorry
wa
different
social
post
issues
talking
understand
took
recently
##y
found
part
diagnosed
came
due
guess
looking
leave
suicide
whole
im
mother
college
seems
finally
such
doesn
advice
etc
experience
completely
happened
least
fear
stuff
remember
meds
move
read
constantly
either
kill
yet
change
real
suicidal
anxious
great
may
ask
problems
therapist
##er
problem
please
during
later
gone
asked
side
panic
bed
call
seem
feelings
fine
hurt
situation
become
however
##t
believe
fuck
couple
sad
saying
stay
disorder
deal
medication
together
literally
idea
less
##e
each
sick
control
10
mean
often
okay
room
far
extremely
close
full
use
blood
future
wasn
fact
decided
stopped
matter
##r
usually
knew
stupid
support
called
basically
cancer
girl
both
haven
weird
ended
guy
honestly
eat
seeing
afraid
worried
telling
age
reading
soon
happen
morning
needed
anyway
big
father
hell
second
small
phone
sense
avpd
face
worst
coming
x200b
says
moment
instead
thank
psychiatrist
worry
single
couldn
manic
death
longer
course
episode
break
state
starting
half
chest
whatever
ill
isn
eating
gets
boyfriend
everyday
gave
cry
##es
between
low
hospital
child
nice
saw
##i
attack
nobody
story
thanks
goes
possible
car
crying
guys
struggling
truly
moved
comes
three
food
currently
issue
man
physical
hear
mood
kid
barely
quite
loved
##a
hit
spent
worth
yourself
entire
especially
gotten
brother
fun
short
##al
pay
kept
wake
wants
seen
outside
stressed
worked
constant
##n
helped
horrible
emotions
energy
girlfriend
eventually
sister
partner
type
angry
under
asking
sex
hour
met
online
spend
enjoy
weight
broke
inside
open
super
sort
supposed
idk
crazy
##l
rest
cause
severe
stuck
kids
absolutely
knowing
won
study
writing
diagnosis
20
became
focus
group
human
mostly
share
stomach
lose
##m
late
young
deep
god
ex
words
died
dont
taken
emotional
appointment
free
turned
plan
talked
hi
lately
rather
turn
##able
class
dead
forward
happens
relationships
test
country
cut
deserve
difficult
handle
healthy
ok
terrible
whenever
attacks
doctors
show
early
top
30
behind
case
despite
fast
true
mentally
abuse
fight
losing
reddit
trust
write
fucked
similar
daily
given
hurts
noticed
fall
wanting
##ness
18
hold
moving
struggle
ha
knows
pressure
several
suffering
negative
##k
amount
hand
mine
realize
treatment
along
eyes
illness
minutes
whether
caused
convinced
happening
cold
yesterday
##o
huge
lives
physically
realized
childhood
giving
major
play
towards
lonely
seriously
15
bring
serious
sleeping
watch
easy
alive
drinking
mania
question
quit
ways
drive
lack
un
although
experienced
important
changed
multiple
waiting
afford
front
positive
fix
motivation
explain
ones
terrified
chance
fault
looked
##ion
dealing
speak
university
dream
wondering
career
wait
yes
run
dog
husband
name
against
upset
attention
depressive
wouldn
jobs
level
suddenly
trauma
walk
woman
avoid
awful
experiences
killing
dr
drugs
heard
hoping
leaving
reality
strong
abusive
failure
learn
general
sit
music
older
light
medical
middle
related
check
cope
wife
except
personality
conversation
means
sent
set
tests
thinks
contact
dying
miss
born
date
happiness
period
shitty
slowly
anyways
mum
perdedorsoy
##p
adhd
broken
drink
guilty
personal
seemed
dating
listen
##ity
likely
order
sounds
stand
video
watching
must
meet
clear
failed
finding
obviously
aware
current
figure
mess
playing
works
##ic
100
episodes
lived
random
stable
accept
empty
forever
takes
uncomfortable
water
within
##f
began
continue
definitely
complete
https
process
straight
miserable
neck
relate
causing
forget
hey
sitting
yeah
exactly
needs
burden
covid
married
24
throat
apartment
calm
emotionally
lol
reach
somehow
trouble
younger
act
none
alcohol
reasons
suffer
unable
using
vent
12
certain
dark
disease
genuinely
hands
harm
oh
ready
summer
degree
helps
id
ptsd
putting
##h
effects
somewhere
woke
worrying
immediately
insurance
tomorrow
answer
interest
##c
##ment
becoming
cycle
looks
safe
apart
daughter
pass
questions
simply
16
19
experiencing
eye
games
grade
internet
text
amazing
attempt
exist
intense
perfect
##ation
mad
parent
peace
throughout
comfortable
passed
##ers
anger
dreams
extreme
helping
results
easier
incredibly
known
twice
adult
damn
effort
keeps
learned
medications
step
student
term
hang
history
lamictal
managed
skin
##ive
asleep
community
easily
example
psych
wonder
clean
drug
further
hair
hurting
notice
weak
growing
kinda
lie
note
driving
ive
sound
useless
blame
buy
hello
honest
imagine
son
ending
nervous
space
sucks
area
gonna
themselves
quickly
cant
nearly
totally
interested
rant
running
exhausted
manage
result
tells
understanding
weed
beginning
city
game
lead
purpose
walking
birthday
com
grades
near
21
normally
painful
research
women
##in
classes
numb
apparently
listening
medicine
mention
save
##g
across
form
guilt
selfish
dose
er
impossible
word
##ia
brought
exercise
simple
##or
harder
liked
lithium
system
add
company
freaking
itself
symptom
waste
13
anybody
beautiful
children
moments
voice
lazy
meant
push
skills
##le
##nt
badly
bc
common
earlier
possibly
posting
society
fit
headaches
##ate
##st
begin
cares
condition
funny
pains
weekend
list
##ting
confused
falling
hanging
male
pathetic
response
till
11
himself
including
loving
non
program
treated
trip
keeping
piece
police
ruined
somewhat
worthless
account
appreciate
dumb
fail
shut
strange
tonight
##ine
breathing
four
gives
loss
media
memory
toxic
unless
##th
forced
fully
pills
professional
studying
14
besides
doubt
hated
memories
pick
progress
regret
situations
smart
17
bunch
busy
cat
choice
information
offer
struggled
supportive
allowed
anywhere
aren
door
drunk
homeless
med
minute
staying
tl
changes
comfort
finish
hes
killed
nor
poor
rate
shower
sub
ugly
23
actual
bullied
clearly
considering
desire
lying
office
sadness
checked
fighting
touch
trigger
unfortunately
waking
##0
abused
force
seeking
chronic
developed
escape
existence
grew
helpful
learning
planning
stressful
treat
visit
##est
bf
heavy
herself
hopeless
missing
mouth
22
decision
fell
generally
option
calling
grow
hide
ideas
january
lots
main
paying
##ally
##ful
25
behavior
changing
drop
follow
function
headache
hopefully
ocd
pandemic
present
seek
sexual
smoking
spending
##ling
appreciated
ass
dropped
english
final
gym
meeting
rent
throw
town
usual
www
##ist
arm
commit
cried
expect
hobbies
overwhelmed
prescribed
proud
semester
wanna
##ies
ability
concerned
loves
lower
meaning
number
survive
teacher
##am
##ted
choose
mentioned
nowhere
quiet
send
bought
effect
infection
message
mistake
paid
shame
slow
surgery
teeth
50
public
tips
boring
business
coping
hearing
youtube
background
girls
kicked
plans
wrote
actions
ashamed
breath
holding
led
places
position
##en
##ry
bathroom
beat
bpd
everytime
fake
google
laugh
nights
overall
properly
##x
acting
biggest
breaking
december
excited
female
showed
smoke
willing
##on
baby
edge
edit
event
mg
##b
above
annoying
beyond
boss
bother
cared
confidence
considered
expected
otherwise
party
suffered
##led
anti
awkward
basic
five
hasn
joy
risk
scary
truth
wasted
bullshit
describe
following
mistakes
mixed
speaking
##less
financial
gt
missed
sudden
active
clothes
embarrassed
ignore
loneliness
men
stayed
turns
tv
walked
building
comments
consider
context
desperate
frustrated
improve
options
schedule
sign
stories
subreddit
vision
##ance
##w
damage
decent
decide
ends
esteem
extra
forgot
hole
hypomanic
specific
view
wall
##ating
##ch
##it
hypomania
joke
lay
respond
routine
2020
allow
difference
loser
loud
starts
tears
##um
advance
black
education
everybody
exam
figured
finished
letting
lucky
mild
mirror
muscle
opportunity
overwhelming
plus
reaction
spot
##ant
##id
based
breakdown
breathe
deeply
friendship
insane
posted
regular
sensitive
success
various
##ter
alot
caring
convince
courage
graduated
line
monday
ran
rid
smile
tough
trapped
white
fairly
gain
obvious
shake
slightly
spiral
store
successful
third
value
videos
##is
##ized
events
jump
likes
onto
perhaps
previous
pushed
recent
red
road
siblings
##ish
##u
addiction
book
checking
cool
excuse
freak
insecure
legs
members
potential
quick
relax
relief
ruin
##ble
##il
art
disgusting
failing
language
levels
messed
posts
september
socially
##ping
causes
disability
field
goal
goals
grateful
ignored
large
lasted
pull
return
slept
tend
turning
uni
##ty
##ve
calls
doc
environment
romantic
screaming
team
absolute
app
average
computer
cutting
express
hot
intrusive
isolated
nausea
odd
per
reached
confident
content
existing
grandma
pushing
rough
seconds
signs
terms
tho
##ts
##us
birth
decisions
distance
minor
nature
solution
triggered
zero
##ar
bills
boy
closer
crap
fat
forgive
friday
mainly
overcome
paranoid
power
soul
##pm
40
autism
chat
connection
ear
regularly
ride
upon
accepted
coffee
diet
entirely
floor
luck
wonderful
##ism
asshole
caught
chose
debt
higher
interests
leaves
nose
palpitations
path
periods
practice
private
psychologist
racing
strength
tested
ton
typing
urge
##an
##ging
##ial
affect
coworkers
held
lymph
march
movie
naturally
perspective
picture
six
wasting
access
appetite
arms
bp
cost
fatigue
occasionally
seroquel
sober
suppose
tasks
2021
build
crisis
destroyed
earth
feet
gf
googling
graduate
hardly
idiot
messages
respect
sat
sensation
special
therapists
total
vacation
##rs
accident
bigger
deeper
fears
filled
involved
nbsp
nightmare
opinion
parts
productive
somebody
assume
august
burning
christmas
expensive
habits
passing
passion
received
repeat
tumor
zoloft
activities
apologize
catch
ct
cuz
dinner
essentially
everywhere
exams
fair
jealous
necessary
news
october
pretend
prior
rarely
sharing
shouldn
topic
##ge
##up
closest
compared
continued
conversations
create
interesting
mid
realised
shaking
specifically
##ize
##ped
antidepressants
attempted
attractive
available
blocked
books
comment
didnt
followed
glad
massive
pity
rare
realizing
rejected
sexually
shot
shoulder
stick
swings
title
venting
wellbutrin
##1
##4
##ated
##ent
admit
affected
april
awake
card
dealt
meaningless
misery
psychotic
ridiculous
service
severely
struggles
tiny
watched
##age
##ious
##ous
27
ahead
avoidant
avoiding
disorders
friendships
leg
medicated
monster
overly
particular
planned
provide
reassurance
shift
swollen
universe
worries
##ie
apply
character
exhausting
explained
financially
judge
laying
member
november
picked
showing
shows
track
##2
##king
achieve
actively
afterwards
answers
appointments
bitch
created
emergency
income
knife
manager
marriage
matters
recognize
relatively
sessions
shy
steps
strangers
##nd
agreed
cleaning
curious
desperately
divorce
emotion
flu
hates
impact
patient
project
stopping
studies
ultrasound
##ck
##nce
##re
##ring
air
closed
details
disappointed
ease
favorite
hadn
sore
street
stroke
suck
tension
##ce
##ities
##se
26
anytime
becomes
brings
burn
credit
facebook
humans
locked
meditation
motivated
paper
perfectly
pregnant
saved
session
train
unhappy
##v
awhile
bank
bored
capable
carry
ground
gun
increased
isolation
knowledge
lifestyle
majority
nurse
regarding
roof
stressing
sweet
traumatic
travel
understood
##ary
##ical
##mg
2017
2018
acid
balance
bear
dangerous
habit
hatred
hopes
hug
illnesses
kick
lexapro
minimum
stage
triggers
##6
##ure
2019
bar
believed
dry
grandmother
happier
highschool
interaction
letter
personally
reply
senior
snap
texted
uncle
wear
written
##cy
aunt
concerns
detail
distant
embarrassing
evening
fired
focused
fog
frequently
gas
hiv
ii
moods
mri
pulled
realise
rude
spoke
thankfully
throwing
tldr
training
##izing
activity
brief
conscious
develop
disappear
drank
freaked
frustrating
functioning
gp
increase
leads
luckily
lump
maintain
mindset
particularly
pointless
rabies
rage
receive
recovery
subject
suggested
survey
victim
60
alright
annoyed
ate
awesome
breaks
committed
conditions
discovered
dizzy
enjoying
exact
february
fever
heal
ms
muscles
na
paranoia
phase
refuse
rock
shared
standing
table
talks
upper
##8
##ad
##ions
##ne
##ns
abilify
clinic
cousin
disappointment
distract
drinks
email
enjoyed
heavily
hitting
jaw
natural
neither
opened
pictures
pill
rejection
ruining
saturday
scare
significant
surprised
switch
syndrome
##ming
##tion
below
breakup
brothers
communicate
connected
count
crippling
differently
dramatic
fire
grown
hung
insomnia
latuda
link
local
movies
noticing
potentially
projects
refused
resources
sisters
stool
tbh
ten
warning
##7
##ra
##tic
##ual
action
basis
belong
fill
july
meaningful
permanent
randomly
sake
stability
suggest
sunday
unhealthy
##ged
aches
agree
asks
benefits
communication
cruel
depressing
directly
double
dread
gay
highly
hospitalized
image
journey
overthinking
pattern
pm
primary
removed
scan
stronger
surprise
teachers
thrown
tight
unbearable
unstable
violent
whom
##3
##et
##ible
##ma
##ps
##ries
addicted
apps
argument
btw
bus
consistent
customer
decade
expectations
hiding
ignoring
interview
opposite
pretending
promise
raise
raised
rambling
regardless
responsible
shoulders
stranger
tries
ultimately
ward
xanax
##ied
blue
bone
borderline
bringing
built
bullying
consistently
gained
hungry
ideation
invited
lied
loose
officially
promised
responsibility
scares
screen
shop
spoken
tuesday
useful
weren
##5
##ice
##my
##os
20s
alcoholic
applied
battle
bill
breast
bridge
cbt
certainly
couch
cycling
discomfort
divorced
effective
expecting
fingers
hating
jokes
managing
page
peers
possibility
psychosis
rapid
reaching
react
rely
returned
savings
staring
understands
ups
version
violence
win
yelled
##at
##ile
##ise
##ned
##sis
##way
2022
added
adults
aside
bottle
caffeine
cheated
incident
interact
lung
pissed
poll
remind
role
sadly
silly
smoked
task
teenager
thats
thursday
toll
##as
##ian
##ised
ache
appearance
beating
bedroom
clue
correct
cover
dull
genuine
groups
hyper
initially
interactions
lt
meal
node
pounds
raped
sees
sharp
solve
source
suggestions
swear
torture
trash
winter
wishing
yell
##ably
##ide
##out
##py
acted
admitted
aspect
blown
cardiologist
continues
countless
desk
despair
diagnose
flat
foot
greatly
irrational
kitchen
lunch
pregnancy
rash
refuses
search
sending
states
texting
texts
uk
urgent
void
whatsoever
window
wise
##ds
##el
##line
##na
##sing
90
address
ages
behaviors
chances
circumstances
dizziness
dogs
frequent
increasing
info
inner
instagram
isolate
june
laughing
law
leading
management
math
nauseous
nightmares
occasional
offered
opening
participate
pray
proper
responses
scream
tingling
tw
url
##im
##iness
##ising
##itis
2nd
binge
center
cook
drama
endless
fights
fixed
flight
irritable
obsessed
opportunities
photos
prescription
prove
psychiatric
quality
record
reminded
responsibilities
rn
silent
solid
trans
##red
attempts
autistic
believes
blow
connections
covered
destroy
focusing
ghost
gift
injury
limited
million
numbness
ordered
panicking
quitting
relatives
requires
seemingly
taught
temporary
unemployed
verge
##9
##bed
##ically
##ier
##ro
##unt
00
according
affecting
bag
buying
cheating
co
court
developing
drove
gaming
holiday
hypochondriac
liver
method
reflux
shape
stops
teen
toilet
visited
wedding
##me
##ors
##sed
##ut
##ving
2016
28
accidentally
affection
approach
assaulted
begging
blah
bothered
colon
combination
controlling
corner
coworker
cure
diabetes
difficulty
ekg
exercising
existed
former
friendly
goodbye
googled
iron
overweight
played
plenty
points
recommended
shortly
slight
threatened
types
walks
weekends
yelling
##and
##ium
##ls
##med
##te
affects
antibiotics
applying
attitude
beats
benefit
bottom
cases
complain
cough
dates
forcing
garbage
harming
improved
insight
instantly
irl
key
kinds
laughed
mode
nerve
nodes
passionate
picking
prevent
puts
range
ray
release
safety
science
shown
succeed
treating
typically
visits
vulnerable
wearing
##ered
##fully
##time
##tor
addict
appear
attached
chores
confusing
connect
disabled
dropping
explaining
familiar
feed
forgotten
government
healthcare
household
necessarily
ourselves
pieces
pulse
pure
rules
sensations
separate
sides
skip
threw
undiagnosed
weakness
welcome
worthy
##bs
##ence
##ome
##ze
200
80
addition
believing
complex
concern
cops
core
coward
crush
culture
dosage
hardest
improvement
internship
join
license
lies
lovely
opinions
overdose
park
planet
porn
pulling
roommate
sports
surface
##de
##gy
000
45
abandoned
among
avoidance
bare
brush
club
disappeared
distracted
foods
fresh
gon
hobby
joined
jumping
lines
noise
nowadays
peoples
reduce
relieve
rich
scenario
spring
stresses
studied
suspect
thyroid
treats
triggering
wow
wtf
##cing
##ified
##ily
##ite
##land
##ular
##z
29
abdomen
acne
assistance
awareness
bright
burned
claim
compare
consequences
controlled
counselor
crash
creating
dirty
diseases
emptiness
facing
faith
fallen
finger
fought
funeral
irritated
laptop
listened
needing
paycheck
pleasure
psychology
rational
scheduled
setting
spiraling
split
strongly
supported
sweating
switched
testing
tunnel
urine
website
weekly
##ability
##ach
##ral
##rate
##sh
##ss
##uring
abroad
arguments
blamed
complicated
conclusion
continuing
creative
dated
debilitating
direction
drowning
factors
freshman
identify
independent
inevitable
input
items
lady
lamotrigine
legal
mask
match
notes
pdoc
practically
recover
restaurant
runs
saving
searching
security
sibling
sugar
swallow
threatening
truck
war
waves
##bing
##ire
##vation
academic
accomplish
aggressive
ambulance
animal
bite
blaming
circle
dear
development
direct
dishes
earn
extent
forgetting
graduating
grief
induced
initial
internal
laid
lmao
logical
lowest
lymphoma
occasions
pack
pays
professionals
rape
relaxed
report
required
silence
sometime
ssri
stood
thus
twitching
waited
workout
##ates
##ations
##ct
##ded
##istic
##ning
##rated
##rt
##ver
##yo
afternoon
bike
bloodwork
boundaries
burst
choices
damaged
danger
deleted
dentist
diagnoses
doe
excuses
feedback
film
generalized
grandpa
hypochondria
identity
lockdown
machine
manipulative
master
meals
mechanism
migraines
panicked
patients
ppl
previously
relative
remove
series
shocked
slipping
sobbing
song
sooner
terrifying
thin
unknown
voices
warm
whilst
wished
zone
##der
##dy
##ip
##ke
##oo
##ur
99
abdominal
accepting
aid
assuming
attachment
attracted
blank
box
challenge
color
counseling
crashing
denied
deserves
destructive
doses
drawing
enjoyable
entered
freedom
glass
granted
helpless
hire
holidays
hotel
ibs
incapable
insecurities
laundry
obsessive
owe
prepared
protect
reads
receiving
referred
remembered
retail
route
secure
shelter
shock
slightest
smell
strict
teens
tongue
tons
wage
wash
wave
##ay
##een
##ked
##ng
##ol
##ration
##tive
##zing
4th
article
aspects
bothering
cash
chill
complaining
concentrate
crave
cute
delete
depressants
described
ears
exciting
forth
ghosted
gross
hallucinations
improving
include
intelligent
intimate
mins
pets
pre
psychological
relieved
remotely
responded
round
size
socializing
spread
standard
stare
sucked
techniques
tense
terribly
thread
tinnitus
utterly
virus
vivid
worker
##ap
##ched
##lation
##les
##ll
##load
##ncy
##one
##stic
amounts
antidepressant
arrived
assault
avoided
benign
classmates
conflict
darkness
depending
dick
disgusted
dislike
drained
draw
ect
evil
false
families
grandfather
immediate
intimacy
judged
larger
limit
loop
manageable
mindfulness
moms
outcome
phases
prefer
presence
race
reflect
rehab
relaxing
religious
schizophrenia
shopping
sinus
smaller
socialize
taste
tone
touched
transfer
unlike
unlikely
via
weather
whose
##bly
##pt
##rating
##tain
##ug
##ved
3rd
abnormal
acceptance
accounts
advantage
atleast
boys
bye
concept
costs
depakote
department
deserved
destroying
devastated
doomed
dunno
evidence
factor
flying
frankly
gut
healing
hometown
hotline
housing
klonopin
land
le
logically
lungs
miles
military
nasty
neglected
neurologist
pop
prepare
psychiatrists
questioning
rule
screwed
sell
sends
sight
staff
tendencies
throwaway
til
traveling
trips
unsure
views
whoever
wont
workers
##ics
##lbs
##light
##ow
##rd
##wing
07
10mg
acts
adderall
areas
associated
band
beaten
beauty
block
briefly
bully
capacity
cats
click
comforting
crushed
doesnt
drag
empathy
encourage
encouragement
expressed
frustration
gender
harsh
homework
hopeful
inability
journal
lab
lasting
lesson
load
location
maintaining
messing
monitor
patterns
peaceful
pit
proof
reminds
resulted
season
shortness
skipped
sorts
style
supporting
surely
surrounded
survived
tear
therefore
tolerate
trusted
vague
validation
verbally
workplace
##da
##iate
##inate
##la
##late
##mic
##over
abuser
alternative
anonymous
begged
beliefs
booked
breakfast
cards
cognitive
confirmed
criticism
cross
crushing
discuss
dollar
dollars
driven
engaged
engineering
enter
envy
fits
gap
graduation
headed
heat
hits
humanity
hundreds
incredible
kidney
kiss
lights
messy
methods
names
perform
permanently
punching
recall
relapse
rush
sanity
secret
selling
smallest
speech
stigma
successfully
sun
technically
tiring
tools
traumatized
unfair
urges
videogames
wreck
##cs
##ening
##ering
##iant
##ines
##ky
##ons
##ress
##sy
##ture
##ulate
08
70
additional
artist
begun
behaviour
beside
brains
bump
burnout
calmed
confusion
dads
dance
despise
docs
eaten
efforts
employer
engage
ensure
fade
faint
favourite
fly
foreign
forum
gradually
guidance
handful
hopelessness
hormones
individual
instant
jail
judgement
kills
lows
mix
neglect
penis
pet
pointed
prison
professor
prozac
recovering
religion
request
scratch
shooting
signed
soy
sport
streets
survival
teenage
tendency
tooth
toward
troubles
typical
underlying
verbal
vyvanse
withdrawal
zombie
##ak
##are
##hip
##ids
##ient
##ining
##iving
##ld
##ments
##nding
##ue
##️
500
als
assumed
ball
beer
bitter
board
celebrate
charge
cigarettes
clinical
confronted
consent
correctly
counselling
cuts
defeated
dies
disabilities
doom
elementary
exposure
faking
fantasize
faster
finishing
gad
grab
hoped
houses
hr
immune
inferior
inpatient
instance
marijuana
mark
market
massage
narcissistic
obsessing
popular
product
recommend
remembering
rope
schools
sentence
settled
shifts
significantly
sounded
speed
strategies
substance
swelling
tech
thousand
tightness
ugh
ungrateful
vitamin
ya
yo
##atic
##ative
##ator
##cked
##do
##gle
##hing
##que
##sion
##ud
##va
##work
25mg
35
5mg
adding
animals
apologies
attend
belief
bet
blew
burnt
cancelled
chasing
chatting
church
colleagues
combo
consuming
contemplating
cooking
delusional
dementia
dependent
diarrhea
downs
excitement
extended
faced
forms
grad
grammar
hangout
heartbeat
hence
immature
impulsive
intake
invisible
itchy
longest
meanwhile
mutual
obsession
ongoing
originally
pace
partners
pcp
perception
persistent
pillow
plane
praying
privacy
pursue
reactions
realistically
realization
recovered
relevant
replied
resolve
screamed
shadow
soft
solutions
span
stabilizer
students
tall
teach
teaching
thousands
unwanted
vs
wasnt
wednesday
wild
##bit
##by
##dle
##ience
##ill
##ists
##ization
##ks
##lated
##ms
##ner
##nic
##pe
##ric
##ship
##sm
##ward
##wn
##ying
32
af
amazon
bleak
bleeding
bothers
bout
bowel
brushing
brutal
chore
creepy
disaster
dreaming
dude
explanation
facility
fan
fed
figuring
finances
folks
goddamn
grocery
growth
guessing
haha
happily
havent
highest
horror
hypo
inadequate
increasingly
interacting
interviews
introverted
isolating
justify
kindness
laws
leukemia
lifetime
loans
marks
minimal
neurological
noone
occurred
overthink
pc
pizza
precious
prescribe
provided
pushes
replace
researching
scars
secretly
shell
shouting
slip
someday
south
ssris
suffers
supervisor
supplements
texas
ticket
touching
traffic
ulcer
walls
wisdom
wishes
yard
##ding
##ened
##ested
##ets
##ification
##j
##lly
##op
##per
##tory
##ulated
##ulation
##use
150
30s
75
abusing
acknowledge
allowing
apathy
atm
base
battling
bleed
blowing
bond
characters
cheap
choosing
cliff
compassion
completing
concerning
countries
crashed
critical
distraction
downstairs
eligible
embarrassment
entitled
exercises
fatigued
features
fellow
fiance
functional
gerd
groceries
heck
highs
hurtful
ice
impulse
instances
introvert
lasts
learnt
literal
loan
loathing
mature
messaged
miracle
misdiagnosed
mobile
movement
nearby
occur
oldest
paralyzed
passes
pee
poorly
reduced
reference
regrets
responding
roommates
row
scenarios
services
showering
sink
sites
skill
sleepy
specialist
subjects
temporarily
theory
theres
thesis
tied
tolerance
turkey
unmotivated
unrelated
update
vomiting
##acy
##asing
##ball
##bling
##cks
##day
##ess
##hood
##iable
##ir
##lf
##mo
##oe
##oke
##ot
##race
##ray
##read
##un
##vity
1000
1st
2015
33
4am
abandonment
adopted
bath
beach
begins
blurry
boyfriends
bs
cancel
cars
chair
claimed
confront
cop
cured
customers
dbt
delusions
driver
dust
effectively
enjoyment
excessive
expressing
fantasy
feb
flow
healthier
hired
horribly
imagining
impacted
industry
insanely
lessons
linked
listens
messaging
midnight
minded
mornings
negativity
numerous
od
ofc
outlook
payment
performance
placed
pls
pot
protein
reasonable
repair
replies
require
restless
rooms
sane
scale
shoes
shots
sky
sought
spectrum
stab
stabilizers
status
stock
sweat
target
thankful
theirs
trusting
untreated
vehicle
vet
visiting
whats
##cking
##ents
##her
##iest
##ins
##io
##iting
##ley
##lic
##logy
##mission
##ny
##om
##ose
##ta
##tly
##uck
##ule
##ute
##wards
##zed
31
accomplished
accused
allows
american
answered
apologized
apparent
attempting
balls
basement
beg
bi
bits
blind
blocking
boredom
brown
brushed
casual
catching
cell
chaos
checks
clicked
committing
contribute
cycles
destruction
determined
disconnected
discussion
duty
eachother
elevated
emdr
employee
employees
employment
endured
exists
explode
faces
firm
fool
gallbladder
grabbed
grip
guts
handling
hers
hesitant
hunger
ideal
ig
impending
inflammation
innocent
intensity
invite
ish
kicking
lacking
letters
lock
masters
meantime
meditate
meetings
mentality
motivate
negatively
nuts
oral
outlet
overreacting
painless
parking
participants
passions
passive
patience
pile
plate
preface
produce
punishment
quote
raising
reckless
records
reflection
resentment
roughly
salary
satisfied
snapped
songs
supposedly
surviving
sympathy
terminal
threat
treatments
uncontrollable
ur
washing
##0mg
##back
##gs
##oked
##old
##ony
##rass
##ude
100mg
300mg
50mg
5th
acceptable
acute
adrenaline
allergies
altogether
anime
appears
aswell
bat
canada
climb
clock
commitment
completed
consumed
contract
courses
cousins
crappy
criminal
decades
defend
demons
denial
depth
derealization
description
difficulties
disappoint
doors
downhill
drives
eight
eu
euphoria
existential
expenses
exposed
fate
fixing
flash
freeze
grand
guide
handed
hollow
humor
imagined
importantly
insult
intensely
isnt
iv
joking
junior
kissed
legit
lifting
liking
listed
logic
mechanisms
mentions
monthly
motions
movements
native
network
noticeable
numbers
objectively
ocean
oil
optimistic
original
partly
pocket
poisoning
preparing
presentation
progressed
punched
ramble
reject
reminder
repeating
resting
resulting
scene
semi
sorta
stared
storm
strain
surveys
swallowing
swing
talent
temperature
unique
upsetting
values
vice
virgin
vomit
wood
youth
##active
##all
##als
##cap
##ces
##cial
##ern
##ff
##ft
##gue
##ify
##ined
##iring
##its
##our
##rance
##ri
##rn
##roll
##rous
##tering
20mg
6th
antipsychotics
anxieties
argue
articles
asap
betrayed
biological
brave
butt
chain
charges
chemistry
chills
chosen
clarity
cleaned
convincing
couldnt
curse
daughters
degrees
design
disappointing
distress
dorm
dumped
dysfunctional
dysphoria
ecg
examples
exhaustion
feeding
fiancé
foggy
gi
gpa
grandparents
haunted
heaven
hidden
inevitably
intention
involve
judging
knocked
lbs
lecture
lurking
magic
moves
nail
naked
nope
obsess
occasion
offended
openly
outbursts
outgoing
outsider
peak
perceive
petty
photo
phrase
plastic
pride
proceeded
puberty
quarantine
rabbit
ranting
remaining
repeatedly
replying
resort
resume
rise
rot
ruins
screw
searched
secondary
section
sertraline
sexuality
sh
stairs
stays
steady
stone
straw
surprisingly
switching
tends
thru
tinder
tip
twisted
unaware
unemployment
vicious
visual
wherever
whining
windows
yoga
##ads
##ages
##ans
##ase
##bc
##ber
##board
##but
##coming
##ction
##ep
##ey
##fect
##fit
##ination
##ition
##lt
##ncing
##no
##ptive
##sal
##so
##tle
##ung
##ution
8th
abandon
acquaintances
alarm
anhedonia
apathetic
appt
arrested
attacked
attended
attending
challenging
chemical
claims
clarify
classic
client
colleague
consciousness
cptsd
crawl
cyst
de
detached
diabetic
discussed
drain
dreading
dysfunction
empathetic
enrolled
excessively
external
falls
fearful
fearing
firstly
floating
forming
fulfilling
gaining
gov
grasp
gray
green
guard
harmed
hygiene
included
indeed
individuals
informed
initiate
insulted
intentions
invested
irritability
joint
justified
karma
label
latter
leader
lift
lifted
manipulation
marry
max
meth
min
mothers
narcissist
needles
nine
op
org
paperwork
partying
perceived
polite
powerful
prospects
purely
pursuing
rapidly
realistic
recognized
referral
remain
remained
reputation
respected
roll
roller
rushing
sacrifice
sales
score
scrolling
sea
seizures
sensitivity
settings
sickness
sigh
spite
standards
starving
stated
stem
stepdad
stream
structure
survivors
tf
threats
torn
twitches
twitter
uncertain
upstairs
uses
valid
weaker
##aked
##aps
##bility
##cture
##den
##gged
##iates
##ibly
##ick
##ight
##iling
##inated
##lier
##like
##nder
##of
##oid
##ole
##ore
##orm
##pired
##play
##pose
##rial
##row
##rse
##sa
##test
##umble
##ury
##vating
##vy
##yrs
300
34
aching
adjusted
advise
agitated
automatically
bachelor
backstory
biopsy
blog
bones
brand
breakdowns
bro
bugs
button
calming
careful
carrying
ceiling
centered
centre
circles
closet
closing
competition
compliments
constipation
contributing
cup
data
deficiency
depressions
desperation
diary
diploma
directed
disgust
dive
downward
draining
dumbass
effexor
elsewhere
emails
employed
fantastic
figures
finals
finds
flare
flirting
frame
frozen
fucks
generic
gifted
happiest
heading
height
hid
hospitals
http
ibuprofen
ignores
images
includes
involves
irresponsible
jerk
jesus
joining
jumped
legitimately
liquid
loner
magnesium
manipulated
material
meat
molested
nonetheless
nursing
outcast
participation
parties
patch
plain
pool
practical
practicing
preventing
price
procedure
procrastination
qualify
regards
released
reminding
remote
reset
scans
separated
shattered
shirt
shoot
shout
sinking
site
spoiled
sticking
stretch
summary
supply
tool
traditional
trained
transition
traumas
travelling
trick
unbelievably
uncontrollably
understandable
unit
utm
vertigo
wan
washed
weigh
whereas
wine
woods
wound
yay
##ain
##ave
##bating
##bia
##box
##care
##ced
##cies
##cise
##dated
##els
##friend
##how
##ils
##ited
##ively
##ker
##kin
##lash
##logist
##mer
##nny
##nts
##pers
##press
##pressed
##q
##quent
##rough
##rupted
##table
##tal
##tions
##to
##ump
##ured
##ves
##vision
##well
##´t
48
abilities
absent
achieved
adulthood
afterlife
aged
alien
antipsychotic
approaching
arrest
assignment
assignments
asthma
bd
belongings
boat
bodies
boom
bouts
bp2
breasts
buried
cage
california
careless
channel
cheat
chin
christian
chronically
cleared
climate
combat
companies
comparing
competitive
compulsive
concentration
contacted
continuously
crack
cramps
cream
cringe
curiosity
darker
dearly
deciding
designed
devastating
digestive
dirt
discussing
disrespectful
ditch
dozens
dressed
earning
ego
ele
endure
ent
escapism
extensive
fish
flashbacks
follows
forces
format
fragile
fuckin
fulfill
gather
gentle
ghosting
grave
greater
guarantee
guitar
halfway
hooked
ie
impression
inappropriate
injured
instinct
intelligence
internally
intervention
keys
lawyer
lease
length
lets
libido
limits
literature
loads
lumps
manner
mattered
model
needless
noises
obsessively
official
orders
outpatient
partially
phobia
poetry
popping
pounding
president
prone
providing
ps
punch
recommendations
reflecting
resent
respectful
responds
returning
ring
risky
root
rooted
satisfaction
scar
scholarship
seizure
seven
shorter
sing
software
spare
specially
spells
spine
spiritual
stars
stealing
stems
sticks
stiff
string
subconsciously
surrounding
survivor
suspected
talented
tearing
tie
topics
traits
upcoming
upped
volunteering
wind
witness
woken
wore
worsening
yrs
zyprexa
##00
##ade
##ah
##aking
##ard
##cm
##connect
##end
##gic
##hh
##illing
##ime
##iny
##kg
##man
##mate
##mies
##ney
##ok
##phone
##port
##ranged
##ree
##right
##room
##sist
##take
##tered
##ton
##tter
##ven
##ways
##worthy
## 
2023
3x
400
abyss
adequate
agony
agoraphobia
albeit
analyzing
aneurysm
answering
apologise
appeared
army
arrogant
assessment
associate
ativan
behavioral
benzos
boxes
buddy
bumps
bursts
buspar
calories
camera
casually
cbd
charity
chase
cheek
clingy
cocktail
colonoscopy
complained
concert
contacting
couples
cursed
dare
deals
decline
declined
dedicated
demand
deny
discharged
discord
dissociated
disturbing
domestic
dragged
dragging
drawn
dreamed
dress
easiest
egg
endoscopy
energetic
excellent
excruciating
existent
explains
explore
facial
famous
favor
fixated
fluoxetine
forehead
fortunate
foster
foundation
girlfriends
greatest
heightened
hospitalization
hundred
imposter
improvements
inch
inconvenience
insignificant
intensive
international
itch
junk
kicks
knee
landed
lastly
latest
laziness
lean
library
lightly
mate
meditating
medium
melanoma
meltdown
mere
mouse
nap
neighborhood
nonstop
novel
obese
onset
operate
organization
overwhelm
panicky
paths
payments
pessimistic
platform
poster
poverty
preferences
prescriptions
press
privately
prolonged
promising
psychologists
punished
rationally
reacting
reasoning
reassuring
rejections
repeated
replaced
rescue
ripped
risks
robot
rushed
safer
scaring
sedentary
sets
settle
shaky
shes
shuts
shutting
smoker
sole
spots
static
stepped
subtle
suffocating
superficial
supermarket
suppress
talents
tea
temper
tiredness
toys
trivial
twenties
twitch
typed
unattractive
uncertainty
unrealistic
utter
victims
virtually
visible
wide
withdrawals
wrist
##action
##ag
##ale
##amp
##ane
##aning
##apy
##away
##bled
##ching
##cted
##ear
##ency
##fied
##fy
##grade
##gram
##head
##ibility
##icking
##imate
##inary
##ires
##ished
##itated
##loat
##mt
##ologist
##plied
##rain
##rant
##rical
##rier
##rive
##rm
##ster
##tes
##tious
##tt
##uish
##und
##vate
##vated
##wind
##years
##zz
11th
180
200mg
7th
95
absence
academics
accompanied
allergic
america
application
articulate
asian
aspergers
autoimmune
bay
belly
biting
bizarre
bladder
blessed
bowl
bug
bullet
bullies
bupropion
campus
cannabis
cardiac
challenges
cheaper
checkup
clients
collapse
collapsed
combined
concussion
confirm
counting
creature
custody
daydreaming
deadline
deadlines
definition
deleting
dental
depend
dident
disclaimer
dismiss
dismissive
dissociation
distancing
distractions
distraught
documentary
ed
educated
engineer
entering
equally
eternal
europe
eve
exit
filling
flaws
forums
gastritis
gently
glasses
goodnight
gotta
grey
handled
hateful
heartbreaking
heroin
hesitate
holds
holes
holy
honesty
horrific
ik
immensely
incompetent
infected
influence
insults
irritation
jobless
leech
maths
migraine
mildly
mile
milk
minds
modern
mono
murder
nephew
nerves
neutral
nonsense
offers
omg
opposed
ordinary
owner
pants
papers
patrick
permission
perspectives
pins
piss
policy
practitioner
processing
productivity
psychiatry
pussy
qualified
rain
rapist
raw
reassure
reassured
recurring
remains
reported
requested
retarded
reward
rising
rotten
sabotaging
scratching
sensory
serve
severity
sided
skipping
skull
slave
sleepless
sold
sorted
spanish
spasms
spider
stabbing
stages
station
statistics
stores
substances
suspicious
technique
tiktok
trade
tragic
tricks
tumour
unlovable
unnecessary
uti
valuable
volunteer
wallet
warmth
websites
weights
wheel
worsened
wounds
wrap
zeebie
##ady
##ang
##anxiety
##cating
##ciated
##duce
##ection
##ee
##ending
##eral
##estion
##ever
##graphy
##gression
##ht
##iated
##iction
##ield
##ift
##ilities
##ional
##itation
##itive
##lace
##law
##ler
##lessly
##lid
##lish
##lled
##mi
##mos
##nie
##nk
##nsion
##od
##pal
##pam
##paration
##post
##rupt
##sia
##sity
##ten
##uation
##ucking
##une
##ush
##uted
##wed
##ya
120
18th
36
38
40mg
600
9th
accurate
achieving
addictions
additionally
advocate
affair
aka
ambition
amoeba
amongst
angel
appeal
appropriate
approved
arguing
arts
attacking
attraction
backed
backs
baseline
blames
blessing
bloody
bob
bound
bp1
bpm
bury
careers
cashier
cease
chocolate
cholesterol
classmate
classroom
clot
cocaine
comfortably
compliment
contrast
coughing
counsellor
craving
creativity
crossed
decreased
desires
destination
detailed
detect
directions
director
dismissed
distracting
doubting
dozen
echocardiogram
embrace
enlarged
entrance
entry
escaping
euphoric
exaggeration
exchange
expectation
films
finance
football
funds
furthermore
gabapentin
gaslighting
germany
giant
gratitude
grieving
guessed
gums
hears
hearts
heavier
hint
horrendous
humiliated
husk
icu
illegal
imagination
imgur
immense
impatient
infections
intestines
jack
jewish
joked
kidneys
knock
laughs
links
lips
lover
lupus
magically
mail
makeup
manifest
mini
moderate
muster
naive
named
navigate
neighbor
neighbors
nutrition
obligation
overnight
paragraph
piling
population
portion
positions
pots
praise
primarily
privileged
programming
programs
progressively
psyche
quietly
realising
recording
regard
relation
relaxation
restrictions
ringing
rut
scam
screwing
seat
shallow
shits
sis
skinny
smiling
sob
soo
spends
spinning
spiraled
star
statement
stutter
supports
sustain
technology
terror
th
thath
threaten
tree
tremendously
trial
tutor
untill
variety
vegan
warehouse
wellbeing
withdrawn
wonders
worn
wrists
youngest
##ack
##act
##ading
##ado
##alyze
##amping
##ational
##aved
##aving
##ca
##cate
##cated
##dding
##dicate
##edly
##eping
##ery
##ezing
##found
##go
##ha
##hot
##iance
##iation
##ik
##ility
##inished
##ites
##lay
##leasing
##lies
##mail
##mates
##mia
##minent
##mit
##mpathize
##nate
##non
##oluntary
##pd
##ph
##pire
##ple
##posed
##pped
##raining
##rily
##rin
##rity
##rted
##sle
##son
##ssion
##state
##the
##ther
##ties
##tors
##tte
##ub
##uct
##udge
##uding
##uition
##ulsive
0mg
150mg
3am
academically
adds
admitting
adolescence
affirmations
ai
alert
ambitious
ankle
applications
approval
aspirations
assured
attributed
authentic
auto
bags
beforehand
behave
beneficial
bio
boost
breaths
brick
bridges
budget
cake
carried
chapter
childish
cities
claiming
cm
coaster
concluded
concrete
confidential
consciously
consultation
convo
corporate
corpse
cos
coz
creep
creeping
da
dae
dallas
deadly
deaths
decides
declining
defense
define
dehydrated
delusion
demanding
depends
deprived
describes
describing
destined
deteriorating
device
disappearing
discover
distanced
donate
dopamine
drown
eats
endlessly
enemy
entertainment
equal
escalated
executive
expense
fantasies
farm
fianc
fiction
filed
fist
forgiveness
fraud
fruit
fulfillment
gaslight
german
guns
hernia
hip
holter
hook
hs
hugged
hunting
insisted
introduced
john
knees
lifelong
limbo
loosing
marketing
mass
matched
measure
metal
mucus
musician
national
needle
needy
nicotine
north
numbing
object
occupied
occurs
odds
olds
ordeal
organic
organized
overcame
overtime
pair
percent
physician
physics
pimple
playlist
plays
pmdd
polar
popped
positivity
posture
pouring
priority
proceed
profile
property
protection
proven
puppy
quarter
races
reaches
relatable
relates
relying
repetitive
resentful
restlessness
retire
retirement
review
riding
roads
rocks
rollercoaster
sack
scored
scratched
script
shook
skilled
spark
spelling
spit
spreading
square
starve
stating
stimulation
stools
strained
stressors
strip
stripped
stubborn
sufferer
sufferers
surroundings
sweats
sweaty
throws
tickets
tingly
tore
torment
tour
traumatizing
twenty
twinge
tylenol
ultimate
uncles
uncommon
unmedicated
unpleasant
unwell
usa
user
veins
versa
viewed
wealth
wet
winning
wired
wondered
workload
worthwhile
writer
yea
york
yours
yourselves
youtu
##aly
##aned
##bles
##born
##cess
##chy
##cluded
##cope
##cusing
##done
##eat
##ect
##ens
##erd
##ese
##fing
##gage
##gate
##gies
##hole
##hs
##hymia
##ians
##iating
##iding
##ife
##ig
##igate
##ild
##ipe
##isation
##istent
##ix
##let
##lim
##lity
##lo
##lurred
##minate
##mm
##nal
##nation
##nb
##nch
##ngle
##nolol
##ntal
##oil
##olic
##pa
##pack
##pass
##phobia
##pical
##plant
##ptic
##rail
##rent
##rics
##rry
##rum
##siness
##sive
##ssed
##stitute
##teen
##tract
##ues
##ugged
##ught
##uing
##ulations
##ures
##ust
##vil
##weight
10th
1x
2011
2x
39
55
800
absurd
acknowledged
ad
adopt
agrees
album
alienated
anniversary
announced
annoy
apple
applies
arrive
artery
aspirin
assistant
aunts
b12
barrier
battery
bawling
belt
bloating
boxing
brat
bruises
burp
carefree
charged
chess
chicken
chunk
clothing
cloud
clubs
coma
commute
complaint
complications
contacts
contributed
cooked
coupled
cracked
cravings
crawling
criticize
crucial
darkest
default
delay
deserving
dig
ditched
drivers
dudes
dump
dvt
emailed
encouraging
engaging
epilepsy
errors
essay
established
evaluation
exaggerating
expression
facade
fancy
fatal
filter
flag
flashes
flesh
flipped
formatting
fourth
fridge
fried
frightened
fuel
fundamental
fundamentally
furniture
generation
grinding
grounded
gum
harassed
headspace
healed
heartburn
helper
hero
hideous
hindsight
homophobic
hormonal
horny
hugs
huh
hydroxyzine
hyperventilating
ideally
ideations
ignorant
imaginary
inconsiderate
inducing
inherently
insanity
insecurity
insulting
intended
intentionally
involving
iq
ironically
joints
judgemental
justice
kms
largely
lessen
liar
limbs
lined
loyal
lust
majorly
manifested
mattress
medically
medicating
meets
mei
mexico
mindful
mission
moon
motion
mundane
mute
newly
nurses
objects
olanzapine
overcoming
overdosing
owned
packed
paint
pale
parental
parenting
performing
pharmacy
philosophy
php
pic
pisses
plant
player
pneumonia
poop
pops
portfolio
pound
ppd
prayed
preferred
premature
prevents
profession
promises
promote
published
pulmonary
punish
que
radiation
rationalize
recognise
recognition
references
refusing
regretted
reliable
resist
resolved
resource
respiratory
rested
revealed
ridiculously
river
rolling
seasonal
showered
signing
singing
sits
sleeps
slipped
smarter
socialise
solely
steal
steroids
stimulants
stolen
strategy
strive
studio
subsided
swimming
tablets
technical
testicular
therapeutic
thirsty
ties
tragedy
transportation
trap
trees
trileptal
tripping
tumors
turmoil
uber
ultra
unavailable
unconscious
unfortunate
united
unsafe
unusual
users
validated
vaping
village
virtual
vodka
vraylar
whatnot
willpower
yellow
zaps
##ache
##acing
##acted
##aded
##ants
##arily
##art
##ately
##atory
##ats
##bid
##bo
##cause
##ciation
##clusive
##ctive
##ctor
##cus
##dating
##dation
##dling
##ement
##ew
##ex
##filled
##ger
##gia
##hit
##ho
##hr
##icate
##icative
##ich
##igating
##ign
##iliation
##ilot
##iming
##inal
##ingles
##ings
##ior
##ired
##ital
##ival
##ivity
##ken
##kes
##lam
##lding
##liver
##loaded
##lot
##lving
##mark
##mma
##mom
##nails
##nizing
##nomy
##nting
##ob
##ocd
##oes
##omb
##onic
##orexia
##ories
##ory
##ound
##pecified
##phobic
##playing
##point
##pping
##quence
##raction
##rained
##ras
##rian
##rine
##rist
##rnal
##rospect
##serve
##ses
##sian
##sible
##sions
##site
##sue
##ters
##thing
##ti
##tial
##tile
##tled
##ually
##udes
##ued
##uit
##uited
##ula
##ulating
##ups
##val
##valuated
##victed
##ware
1am
2014
2am
72
abortion
accomplishments
acquaintance
adapt
addictive
addressed
adjust
admittedly
adoption
adverse
affectionate
aftermath
ah
airport
alongside
antibiotic
antisocial
apology
appealing
approximately
arise
armpit
arthritis
assholes
audio
bacteria
bail
bald
becouse
beings
bell
beloved
beneath
blade
bland
blocks
bodily
borrowed
bosses
bubbly
buspirone
cancers
candy
cardio
cast
celebrating
choke
closely
coincidence
commented
commonly
communities
compensate
complains
comprehend
condom
confessed
confirmation
consideration
construction
contracted
coordination
copy
corona
counselors
counter
cracks
crime
crumble
crumbling
curl
daddy
damaging
debts
decrease
deepest
depersonalization
dermatologist
devices
discipline
discount
discouraged
dissociate
dm
document
drastically
dug
earliest
echo
effecting
entertain
error
esophagus
exception
exclusively
failures
fathers
fathom
feared
fitness
fleeting
florida
fortunately
fortune
freaks
freely
french
frequency
functions
fund
furious
genes
grind
harassing
hardcore
harmless
headphones
heads
homelessness
honor
hood
host
hpv
hrs
hz
identifying
immigrant
india
indirectly
insists
instructor
interacted
invites
jan
jittery
jokingly
journaling
killer
kissing
labeled
labels
labor
ladder
lame
lashing
lengthy
lightheaded
located
lord
lyme
managers
mastery
mdd
measured
measures
mediocre
meh
meningitis
mentioning
misses
misunderstood
mocking
mold
moody
moral
mountains
muscular
nagging
nails
narcissism
neighbour
norm
obligations
observe
observer
offering
officer
oriented
ounce
outta
pages
panel
parkinson
paxil
pcos
pd
pdf
pleasant
presented
pressing
pretended
prioritize
procedures
procrastinate
procrastinating
professors
progressing
progression
puke
purposely
pvc
racist
rat
rates
reasonably
recorded
regulate
renting
requirements
researched
resign
reveal
rip
risperdal
robbed
rocky
romantically
ruminating
salt
san
schoolwork
screens
secrets
seeker
serotonin
shall
sheer
shyness
similarly
simplest
sized
smiled
sophomore
sores
sorrow
spasm
speaker
speaks
spiralling
splitting
stands
steadily
steam
stumbled
stupidly
subconscious
subs
sucking
suggestion
suggests
systems
talkative
tap
tapering
tattoo
tax
temp
temple
terrifies
thanked
thigh
thumb
tms
toddler
toe
trading
undergrad
underneath
uneasy
unfamiliar
unlucky
unprotected
unreal
unreasonable
vaccine
valve
vast
visa
vitamins
voluntarily
web
weighing
west
whore
wikipedia
wipe
witnessed
wouldnt
wrecked
wrestling
##12
##aced
##ager
##aging
##aid
##ail
##ake
##ality
##apist
##ards
##aries
##ax
##ba
##bate
##beat
##break
##cal
##cending
##cher
##co
##craft
##cule
##cycle
##dered
##dering
##ders
##des
##elf
##em
##ential
##ere
##esthetic
##esy
##fer
##ga
##gain
##geous
##ges
##gie
##he
##hed
##hew
##hn
##hobia
##hris
##iac
##icient
##icle
##ict
##idate
##idated
##ievable
##if
##ifications
##ino
##inted
##ionship
##ison
##isted
##isting
##istrust
##ivable
##izes
##key
##lex
##lice
##lines
##live
##lling
##loading
##lock
##lour
##lur
##minated
##motion
##mp
##nant
##ncies
##ndered
##nes
##nge
##not
##obe
##ological
##ology
##omatic
##ool
##oot
##opath
##ours
##ously
##pated
##pend
##pled
##raft
##ram
##rates
##reddit
##rence
##res
##rew
##rict
##rid
##rill
##ris
##rite
##riving
##rize
##roid
##rown
##rvation
##ryl
##scent
##send
##shit
##size
##sociating
##spiration
##stitution
##suit
##tained
##tation
##tension
##term
##tern
##testinal
##tling
##tom
##uated
##uating
##ubling
##ucks
##uctible
##uctive
##uggling
##ulant
##uled
##ulge
##ult
##umbled
##uminate
##uming
##unted
##urbed
##urer
##urity
##valuate
##verse
##vid
##wardly
##ws
##zzy
12th
21f
6am
900
911
aa
abandoning
abruptly
abusers
abuses
accommodation
achievement
addicts
admission
advised
aforementioned
alcoholism
align
alt
ambitions
annoyance
ap
appendicitis
approached
athletic
attribute
au
australia
authority
banned
bars
batch
battled
bearable
beers
behaved
binging
biology
birthdays
bisexual
blanket
blast
bless
boiling
bonus
bottling
bragging
burns
calmly
calms
carefully
cci
celexa
cereal
chaotic
characteristics
chatted
cheer
chooses
citalopram
clonazepam
clueless
coherent
comfy
communicating
comparison
compulsion
connecting
conquer
consume
contest
continuous
contrary
cookies
coped
covers
criteria
crushes
curb
cynical
dancing
dawn
daydream
dee
deemed
defective
demise
depressant
desired
digging
dignity
dip
dire
discovering
distressed
documents
doubts
drastic
drifting
drs
dysmorphia
ekgs
eldest
electricity
encounter
encouraged
enormous
equipment
erase
euthymic
evenings
evolved
exaggerated
examination
expects
extrovert
facts
faded
fainted
fainting
feature
ffs
file
flags
flashback
flew
flowing
flush
freelance
freezing
gagging
gatherings
ged
generous
genetic
golden
grandiose
happend
harassment
hardships
hat
haunting
haunts
heartbroken
hill
hints
hiring
horrified
humiliating
hurry
hypersexuality
hypothetical
identified
imaginable
independence
independently
indifference
indifferent
inept
infinite
infront
injuries
insert
intentional
interpersonal
invest
item
iud
japan
jfe
ketamine
kg
kidding
landlord
languages
lash
league
legally
lifes
lingering
log
longing
loudly
lowering
luxury
maine
mall
masking
matches
mates
maximum
melatonin
midst
miraculously
mixing
module
mole
mortgage
mourning
multi
neuro
niece
nothingness
notifications
objective
obligated
orgasm
outcomes
paced
painting
palm
participating
pause
persons
piano
picks
plagued
platonic
poking
politics
pos
predictable
processed
progressive
promoted
protective
proved
pub
publicly
purchased
puzzle
qualtrics
quetiapine
rampant
ranging
recluse
reducing
reduction
relapsed
relating
repeats
replaceable
reviews
rides
rights
ripping
ritalin
roles
rolled
rolls
rub
ruled
sabotage
scarred
scattered
schooling
scores
seeming
semblance
senses
shotgun
shrink
silently
slapped
smashed
smth
snow
sobriety
solved
soooo
sounding
spell
spike
stole
stray
streaming
strike
suggesting
sum
sv
taper
taxes
testosterone
textbook
theme
thick
thoroughly
threshold
tortured
toxicity
tracks
transferred
tremors
universities
unpaid
upbringing
updates
upside
usage
van
vein
vibe
violated
violently
volume
webmd
weirdly
wether
whiny
wiki
wit
worthlessness
##10
##13
##25
##5lbs
##abilities
##aches
##ails
##air
##anda
##ange
##antly
##ashed
##asy
##ath
##au
##bone
##bration
##charge
##cheduling
##ciative
##cinating
##cious
##clerosis
##complete
##correct
##ctions
##cuous
##dent
##don
##down
##ea
##eal
##ease
##ek
##ense
##eo
##ert
##erving
##eted
##exual
##fere
##ferring
##fire
##focused
##graphic
##grate
##gulation
##heard
##hen
##iagnosing
##iber
##ican
##ication
##icator
##ictory
##idal
##iful
##igilant
##ikable
##ilitation
##imp
##inct
##ips
##irt
##istency
##istics
##ives
##lance
##lands
##lap
##lawed
##lee
##lical
##lics
##lin
##lob
##lta
##lude
##lves
##mal
##mation
##mble
##mbling
##men
##mes
##mgs
##mh
##mise
##mitted
##mmer
##mon
##mpathetic
##nching
##ndo
##nds
##ndy
##nse
##nsistency
##nted
##oam
##occupied
##omy
##opic
##organized
##ost
##ote
##otherapist
##oting
##ou
##outs
##ove
##packing
##pad
##pain
##parable
##pear
##perience
##pety
##pies
##placing
##ply
##pouse
##rable
##rably
##rading
##rands
##rds
##reed
##regular
##ried
##rifying
##rime
##rit
##rob
##roducing
##ructed
##set
##si
##sisting
##ssing
##stered
##tably
##tach
##talking
##tant
##tility
##tised
##top
##tural
##typical
##ubble
##ubby
##uddle
##udo
##ufficient
##ugh
##uiz
##ummy
##umn
##umption
##unk
##uous
##ural
##urge
##urn
##urred
##ursing
##used
##uting
##vasive
##version
##vical
##virus
##volve
##vour
##vs
##watch
##word
##works
##yed
##you
##zes
10x
130
24m
85
accidents
achievements
adore
aggressively
alarming
allergy
alleviate
alternate
anemia
annual
apartments
apologised
apologizing
asperger
assigned
assist
assure
auditory
automatic
avid
balcony
basketball
behaviours
belonging
benzo
betrayal
bible
bin
blacked
blackout
bliss
bloated
bore
bottles
bpii
browsing
bruise
bucks
burping
businesses
buys
buzzing
caregiver
category
charismatic
cheers
chemicals
cherish
chilling
chips
circumstance
cleaner
clenching
climbing
closure
coast
coat
coin
colds
collect
colleges
compensation
compete
complaints
confide
conflicted
confrontation
consequently
contain
convenient
cortisol
counts
cowardly
critics
cue
cus
deaf
dealer
debate
decay
defensive
defined
delayed
demanded
demands
demon
denying
detected
determine
devil
differences
digital
disregard
dms
earned
east
elara
elbow
electronics
enabling
engagement
equation
equipped
equivalent
era
escalate
exes
experiment
explicitly
fails
fans
fee
fields
fifth
flair
flares
flashing
flexible
flip
flirty
followers
forearm
formed
frustrations
fulfilled
fyi
gastroenterologist
gene
generations
gifts
goods
grabbing
groin
grows
hahaha
hall
hallway
harmful
heated
hereditary
hermit
hesitation
hopped
hormone
horse
hypersexual
illusion
incase
incidents
incoherent
increases
incurable
index
indian
inform
ing
inherited
innocence
intellectual
intend
intent
invitation
ironic
irrelevant
japanese
journals
judgment
judgmental
juice
layer
leaning
lectures
lesbian
lethal
lifeless
limiting
lists
loaded
longed
lorazepam
lowered
lsd
lucid
lurker
ma
majors
manipulating
manly
masculine
memes
merely
mia
mil
millions
mindless
mistreated
mo
moderately
moles
monsters
morbid
moron
mountain
nah
naps
narc
narrative
ncbi
neet
netflix
nevertheless
nhs
nicer
nightly
nih
nlm
nostalgia
nothings
nsfw
obnoxious
observing
obstacle
obtain
oddly
organs
outburst
ovarian
overbearing
overdue
overseas
overworked
oxygen
packing
paired
pancreatic
pe
peacefully
peer
perpetual
petrified
phd
pig
pin
pleaser
pleasures
podcasts
positives
powder
preference
pressuring
prices
principal
pristiq
problematic
products
professionally
provider
provides
psoriasis
pto
pumping
qualities
raging
ranges
rants
reacted
realisation
reciprocate
refill
relentless
relentlessly
reports
restart
retired
revenge
rice
ridden
riddled
rotting
rubbing
rumination
rural
sample
sarcoma
satisfy
scariest
schedules
scheme
scholarships
scientific
scp
scum
se
settling
shameful
ship
shocking
showers
simultaneously
slit
slower
smokes
snapchat
socialization
sociopath
solitude
sorting
spin
spinal
spirit
spray
ssdi
stabilize
stepfather
stepping
sticky
sting
storage
strictly
strongest
succeeded
suicidality
suitable
superior
supplies
surreal
sustainable
swim
tachycardia
tag
taller
tangible
tank
teams
teenagers
thanksgiving
tiniest
tobacco
tolerable
tracking
transformed
transgender
tremendous
troubled
um
unexpected
unexpectedly
unexplained
unhelpful
unloved
vaccinated
vaguely
vanish
vanished
varying
walmart
warranted
whim
xl
yards
##!
##"
###
##$
##%
##&
##'
##(
##)
##*
##+
##,
##-
##.
##/
##:
##;
##<
##=
##>
##?
##@
##[
##\
##]
##^
##_
##{
##|
##}
##~
##£
##«
##´
##·
##»
##½
##à
##ä
##é
##ï
##ö
##ú
##ʻ
##ˆ
##–
##—
##‘
##’
##“
##”
##„
##•
##…
##→
##⏳
##●
##☠
##☹
##♀
##♂
##⚠
##⚡
##⛽
##✅
##✌
##✨
##❌
##❤
##➡
##➲
##⬇
##🌷
##🏴
##🏻
##🏼
##🐰
##👋
##💀
##💅
##💋
##💕
##💖
##💗
##💚
##💛
##💜
##💝
##💨
##📷
##🖤
##😁
##😂
##😅
##😊
##😐
##😑
##😒
##😓
##😔
##😕
##😖
##😚
##😜
##😞
##😠
##😢
##😣
##😦
##😩
##😬
##😭
##😮
##😳
##😹
##🙁
##🙂
##🙃
##🙄
##🚩
##🤔
##🤕
##🤦
##🤩
##🤫
##🤭
##🤯
##🤷
##🥕
##🥰
##🥲
##🥺
##🧡
##🫠
##🫢
##🫣
