[PAD]
[UNK]
_
a
b
c
d
e
f
g
h
i
j
k
l
m
n
o
p
q
r
s
t
u
v
w
x
y
z
fel
like
want
know
life
go
think
time
people
try
get
work
help
tel
day
anymore
start
live
nt
god
things
ned
years
##s
talk
anxiety
depresion
end
love
friends
way
come
die
find
say
beter
hate
year
family
bad
leave
right
take
make
lok
thing
care
job
kil
stop
fuck
long
ve
have
hapen
person
lose
slep
lot
point
hard
tired
schol
ask
pain
away
friend
days
shit
hapy
maybe
wish
fucking
months
hurt
ago
##i
worse
wek
hope
thoughts
new
wa
past
home
se
depresed
world
let
parents
actualy
able
today
cry
mental
sure
self
health
give
break
suicide
litle
best
mom
night
experience
head
times
reason
stres
change
old
eat
understand
mind
kind
don
deal
wrong
scared
strugle
mean
suicidal
wake
post
stay
money
place
sad
read
prety
probably
normal
relationship
feling
month
therapy
weks
heart
body
spend
turn
sory
finaly
brain
il
hear
gues
house
##e
believe
high
kep
write
remember
diferent
##y
bit
recently
mater
dad
doctor
son
##ing
cause
social
hours
bed
fal
real
completely
death
stuf
sick
advice
close
literaly
constantly
colege
great
pay
symptoms
wait
cal
fear
mis
sufer
problem
meds
bipolar
panic
plan
bring
realize
met
therapist
decide
etc
wory
mother
play
isues
problems
watch
move
diagnose
suport
sit
future
fail
anxious
enjoy
couple
okay
honestly
fine
run
hold
everyday
stupid
felings
face
idea
fight
later
##t
morning
thought
rom
medication
##d
idk
girl
pas
afraid
use
wonder
worst
situation
worth
cut
far
alive
walk
control
drive
hit
longer
hel
drink
lie
weird
ha
deserve
moment
grow
exist
dead
notice
supose
hang
learn
fact
single
got
##a
disorder
listen
open
state
basicaly
big
instead
guy
fun
car
man
extremely
thank
##ly
date
##er
continue
stick
forget
guys
smal
buy
abuse
energy
sense
speak
usualy
share
low
##r
act
second
waste
atempt
thanks
sound
age
nice
atack
hospital
horible
amp
rest
study
woried
lonely
truly
father
barely
inside
push
send
suck
girlfriend
boyfriend
fod
half
reach
brother
phone
check
especialy
course
curently
type
mg
blod
##n
angry
posible
hour
chest
outside
begin
force
ok
mes
##o
ruin
mod
entire
lately
manage
dream
kid
mentaly
cope
constant
handle
treat
consider
episode
motivation
sister
question
online
cancer
explain
terible
story
child
absolutely
crazy
trust
bear
fix
tomorow
acept
short
stand
relate
throw
dep
physical
focus
harm
##ed
fre
isue
expect
human
emotions
sort
hi
weight
kids
partner
quit
super
oh
forward
hapines
psychiatrist
lead
yes
eventualy
yesterday
figure
na
severe
clas
country
late
drop
triger
emotional
sex
strong
save
easy
dificult
fast
shity
folow
group
words
seriously
th
ignore
ready
ex
apreciate
clean
finish
physicaly
test
ones
failure
relationships
young
avoid
comit
miserable
true
eyes
burden
depresive
blame
hand
bother
healthy
forever
hey
manic
set
freak
alow
damn
lack
numb
despite
##al
ilnes
minutes
music
daily
reality
early
trauma
convince
dog
aford
answer
mention
vent
laugh
positive
##m
atention
negative
useles
awful
pick
fault
calm
presure
selfish
important
##l
wo
scare
stomach
cold
upset
case
chance
geting
ways
chose
afect
ad
wife
covid
imagine
tonight
similar
sek
order
childhod
put
slowly
husband
lol
peace
##h
bc
carer
worthles
escape
yeah
apointment
atacks
parent
smoke
sudenly
dark
complete
drugs
fake
graduate
sadnes
didn
pils
contact
university
win
##es
huge
survive
major
multiple
show
video
water
alcohol
games
doctors
beat
game
light
redit
harder
woman
jobs
treatment
emotionaly
hide
reasons
##my
jump
##k
general
improve
interest
painful
ugly
genuinely
abusive
pul
develop
piece
midle
anyways
touch
clear
cycle
comfort
sumer
helo
simply
birthday
include
step
guilty
burn
anger
anybody
lives
proces
definitely
mad
apartment
lay
personality
older
function
kick
apart
destroy
experiences
hopeles
safe
badly
nervous
til
level
purpose
note
imposible
ofer
random
build
medical
weak
fil
scream
conversation
easier
efort
aslep
diagnosis
exercise
living
shake
adhd
straight
hair
lazy
society
disapear
catch
pretend
mum
pathetic
funy
dreams
option
period
space
perfect
shut
smile
visit
##p
amazing
existence
mesage
regret
toxic
joke
por
buly
curent
obviously
city
gain
likely
gogle
trouble
unable
wear
personal
women
minute
episodes
certain
breathe
aware
degre
near
##in
exactly
honest
wed
adult
form
rant
create
drunk
word
beautiful
fit
drug
realise
decision
shower
efects
spiral
busy
extreme
guilt
admit
grade
comfortable
return
imediately
neck
ptsd
##and
insurance
joy
##g
nearly
##le
eye
proud
student
exhausted
left
text
remind
term
describe
aply
los
system
list
skin
sufering
younger
internet
prescribe
result
##able
symptom
mania
refuse
non
psych
quickly
##u
twice
easily
increase
cat
expres
throat
voice
dumb
intense
un
depres
doubt
stable
acount
hopefuly
shot
##f
##but
damage
totaly
##c
avpd
daughter
respond
mistake
example
bok
incredibly
wekend
simple
male
medications
##nes
sign
hands
hobies
questions
baby
interested
progres
research
memories
receive
block
gun
blow
mary
memory
choice
company
pandemic
distract
ampxb
col
hole
dor
##on
desire
stuck
raise
skils
trip
efect
thinking
doesn
rent
area
loser
tips
children
yel
disease
excited
dose
uncomfortable
lonelines
normaly
aparently
switch
cary
everytime
fuly
##the
antidepresants
bulshit
trap
bunch
fire
slow
chat
girls
medicine
tests
kinda
confidence
sexual
history
as
comunity
line
ocd
travel
truth
##it
homeles
heavy
sucesful
grades
actual
comon
black
plans
posibly
scary
pointles
properly
repeat
moments
breath
compare
profesional
lower
batle
drain
media
party
lucky
clases
isolate
promise
sub
terified
confused
everybody
men
smart
boring
achieve
chronic
search
complain
cover
insane
shame
##w
reply
schedule
##b
##ic
helpful
earth
main
hug
asume
provide
tho
value
agre
earlier
tears
unfortunately
number
police
gf
soul
teth
title
##he
beg
response
somebody
anti
condition
judge
town
anoying
ofice
cheat
med
mei
alot
closer
emotion
grateful
perdedorsoy
relief
bigest
join
bf
rate
clearly
fat
quiet
clothes
mouth
tv
coment
divorce
arm
co
english
##ity
public
lots
present
stresful
fed
mistakes
somewhat
basic
dread
stare
ability
breakdown
plus
suden
suportive
strange
er
information
sugest
tough
final
involve
train
last
luck
overdose
relax
htp
pm
terify
edge
##les
conect
diference
flor
goals
pray
base
acident
bathrom
decent
lamictal
view
doe
invite
ride
##ation
results
disgusting
friendship
red
crush
goal
reject
suces
wiling
concern
awake
bos
ghost
godbye
risk
courage
forgive
news
rough
gym
nights
overcome
recover
count
desperate
overwhelmed
teacher
ashamed
extra
lost
stories
crash
financial
restles
distance
overwhelming
wal
situations
texte
usual
drown
movie
oportunity
quick
strength
heal
ideas
rn
urge
zero
##en
##ie
delete
excuse
places
spot
begining
sel
wana
busines
loud
nose
position
store
threaten
headache
rid
tldr
cuz
fair
hot
special
road
absolute
od
surgery
##ers
##re
boy
options
uni
##ive
lithium
tend
##nt
white
average
belong
interview
miror
##te
brush
debt
race
remove
cost
require
apologize
female
rape
zoloft
interesting
picture
previous
prevent
semester
solution
respect
##ion
de
exam
total
behavior
bils
slightly
siblings
estem
generaly
power
snap
disapointment
education
monday
overal
pains
tear
exhaust
bitch
event
lock
meaning
que
subredit
awkward
practice
art
crisis
sensitive
abandon
##ment
impact
maintain
regular
broken
computer
intrusive
youtube
misery
rock
sober
background
crap
headaches
interact
teach
##or
advance
deply
favorite
prove
wonderful
dr
embarased
pop
program
unhapy
##an
friday
##so
pil
air
confident
path
torture
leg
members
nightmare
psychologist
regularly
conection
posts
reaction
specific
atractive
rarely
vacation
##ch
adict
bpd
cofe
recent
so
draw
exhausting
glad
language
potential
reading
recomend
##is
##z
active
cok
pis
##ng
fatigue
edit
enter
slip
socialy
swear
yo
##st
ahead
fly
lexapro
project
screw
skip
wan
environment
hapier
haven
terms
vision
##as
actions
available
ward
birth
couldn
entirely
expensive
field
grandma
meaningles
paranoid
legs
obvious
##aly
##ize
desperately
ground
release
##ts
arms
botle
fet
universe
coments
idiot
ton
traumatic
adiction
coward
friendships
prepare
##x
closest
cure
mariage
pasion
remain
routine
doc
le
react
##ful
ashole
consume
content
decisions
higher
isn
mainly
recognize
solve
##ia
ap
bored
curious
iti
muscle
paper
therapists
wasn
##ate
nature
song
videos
sesion
##us
jealous
pity
sore
team
void
ache
atend
hypomanic
link
obses
aces
events
alright
having
ideation
january
minor
shift
##ine
apear
diner
disapoint
drinking
productive
sexualy
changes
comunicate
large
mild
severely
sugestions
knife
masive
biger
bp
december
rt
##ve
deper
seconds
humans
opinion
personaly
phase
apetite
atempts
drag
holiday
kis
patient
service
disability
discover
financialy
insecure
mid
rot
##at
actively
autism
medicate
topic
trash
welbutrin
##ge
answers
awhile
hatred
rely
temporary
aproach
capable
particular
swet
track
dizy
interests
march
planet
smoking
suround
july
stronger
unbearable
separate
suced
wash
##v
cancel
overthinke
understanding
claim
coworkers
member
relapse
tiny
##ies
##what
reduce
rof
romantic
method
sake
hardly
nausea
steps
tasks
tbh
##ar
diet
haha
mesages
subject
discus
email
pursue
bag
ear
earn
engage
fade
contribute
frustrated
insomnia
interaction
nightmares
permanent
rage
boks
contemplate
context
fairly
infection
mix
neglect
september
tol
anytime
conversations
depend
periods
rare
rush
seroquel
signs
stresed
breathing
evening
motivate
task
august
cousin
decade
deny
majority
movies
pregnant
strangers
##ce
bled
gay
mindset
natural
sun
building
##est
asault
cruel
hungry
perspective
punch
rain
sesions
studies
##rs
levels
sensation
smel
ease
fog
randomly
##il
##this
center
concerned
flu
habits
knowledge
maried
sunday
twiter
##se
bridge
steal
ugh
character
frustrating
gas
lump
minimum
protect
stage
dogs
grab
law
window
##ry
detail
habit
private
psychotic
rude
starve
bank
cough
cros
endles
mixed
##ble
##to
acomplish
aside
dry
esentialy
frequently
hypomania
manager
ocasionaly
senior
socialize
st
unemployed
activities
basis
disapointed
exams
hopes
isolation
limit
nurse
stret
tenager
bil
distant
parts
proper
shock
strugles
swings
uk
##why
anoy
income
milion
particularly
prior
relatively
report
silence
sink
surprised
victim
bite
conscious
dangerous
hardest
leter
mask
painles
pl
shape
counseling
highschol
hire
monster
pack
shoulder
tw
card
endure
expectations
genuine
meditation
ridiculous
rope
abilify
balance
crave
darknes
lift
naturaly
range
rich
shy
stranger
btw
bus
eu
image
awesome
circle
convinced
ya
april
argument
depresing
emptines
fot
greatly
heavily
hospitalize
luckily
lunch
record
scratch
wow
wtf
##ist
##no
##now
details
local
meal
responsible
specificaly
ten
update
double
fears
lymph
resources
swalow
##ter
chase
pleasure
##id
counselor
cute
disorders
box
christmas
useful
apointments
certainly
crep
encourage
groups
prescription
tight
uncle
benefit
credit
decline
emergency
hoby
hotline
meaningful
nd
ocur
perfectly
shop
significant
sily
welcome
##ne
despair
dul
fredom
motivated
numbnes
october
psychosis
responsibility
acknowledge
blue
corect
dom
dramatic
grandmother
instantly
peoples
rd
recovery
relieve
suspect
##me
alcoholic
diferently
garbage
lifestyle
pres
rip
tie
circumstances
lowest
mods
paranoia
regardles
sharp
teachers
direction
insult
military
source
##ant
##when
arive
breakup
bright
exact
lockdown
meting
potentialy
setle
brothers
chances
cripling
embarasing
haunt
ilneses
irl
journey
june
refer
scren
stab
worsen
##de
action
antidepresant
bedrom
rol
sucks
tumor
##do
##im
bar
couch
land
oportunities
pictures
religious
scars
stability
atleast
la
lbs
november
oposite
reasurance
rejection
trans
ups
version
##ke
aunt
iner
pounds
weding
##ck
##ze
binge
bye
click
highly
neds
pls
swolen
taste
ultimately
vomit
concentrate
ct
helples
homework
jokes
perform
spring
sri
war
weather
writing
corner
pile
prozac
psychiatric
celebrate
dude
fulfil
latuda
overwhelm
plenty
religion
responsibilities
borderline
february
gp
grief
prefer
sadly
sisters
stroke
unhealthy
ur
##nce
##one
##ure
acidentaly
acord
means
saturday
sweat
ah
consistently
depresants
gets
identify
kms
necesary
pieces
posibility
quality
spread
whatsoever
xanax
##ra
clue
flat
ik
ms
oficialy
overly
tuesday
##ise
##ish
brief
com
confuse
facebok
faith
funeral
government
mark
math
slight
thankfuly
winter
blah
charge
dislike
fresh
gt
mri
scan
science
sob
syndrome
violent
weigh
withdrawal
atach
customer
empathy
kitchen
loks
transfer
verge
##ut
animals
finger
role
table
vulnerable
zone
apearance
aps
conditions
conections
fever
lt
manipulate
palpitations
ramble
walsim
warm
worthy
##just
argue
curse
dear
dump
lmao
pusy
rule
silent
tension
##et
##ous
afternon
countles
despise
frustrate
gros
irational
liver
necesarily
directly
flight
hr
insight
match
surprise
training
tunel
wise
wories
##ism
andor
blind
choices
evil
fiance
frequent
incident
knock
participate
size
##age
##ow
dres
gift
induce
inevitable
info
instagram
mutual
myselfi
nauseous
pers
previously
safety
savings
voices
wouldn
wrist
##out
colapse
consistent
godamn
lung
management
notes
primary
pure
replace
students
##ct
##up
bare
me
methods
owe
peaceful
practicaly
romate
sports
thursday
##for
bal
cats
conclusion
crack
crawl
dig
friendly
loved
mode
rules
slightest
soner
survey
texts
##ary
##we
activity
afection
aspect
atract
autistic
cals
destructive
direct
hiv
household
inpatient
mechanism
states
thin
thread
unstable
##line
##nd
chil
confront
explode
frustration
imediate
key
psychological
quot
tip
##if
adres
chore
consequences
efective
iritable
license
pets
shoulders
##how
##you
cafeine
comunication
isolated
lean
load
photos
request
solid
wreck
##ling
clinic
extent
ish
jail
kinds
lop
park
patern
split
sugar
teribly
uper
wals
##ance
##ent
confirm
danger
discomfort
page
pol
prison
projects
rabies
reflect
round
unfair
wage
warning
##man
##tion
##ue
##um
atitude
burst
cbt
chalenge
dosage
ect
grant
improvement
punish
someday
##am
##th
##ur
advantage
advise
animal
blank
devastate
justify
laundry
muscles
porn
pre
restaurant
shelter
slepy
sped
surface
tiring
benefits
club
drama
lady
serve
sight
smalest
##na
bet
brains
dirty
false
individual
jaw
nasty
opinions
semingly
wave
##j
##rt
eg
glas
lifei
pet
points
relatives
season
shout
thankful
ultrasound
url
validation
withdraw
workout
##be
biter
dance
defeat
injury
manipulative
perceive
sympathy
tens
wrists
agresive
bone
color
fantasize
holidays
independent
realization
shortly
skiny
worker
af
asociate
court
dolars
downhil
exit
master
spech
stem
tenage
##un
acid
betray
combination
disgust
dizines
ears
humanity
laptop
lovely
noise
remotely
ring
rise
unsure
uterly
wednesday
##ri
anymorei
desk
deteriorate
drift
fingers
hyper
internship
lines
machine
nerve
prof
scenario
website
##there
##ty
awarenes
behave
bump
chores
complicated
culture
flip
overthink
pound
price
twet
##ro
adults
ages
bore
breast
clinical
dates
freze
hopeful
lungs
moms
nowadays
permanently
responses
sabotage
series
truck
venting
atm
clasmates
demand
disabled
en
familiar
families
guts
lies
min
toilet
violence
yrs
##os
##ot
acne
bike
creative
heaven
initialy
legal
mesy
ocasional
plane
surely
tense
tre
##q
choke
cops
dependent
film
forth
guarante
hopelesnes
identity
incapable
insecurities
pasionate
security
songs
typical
eid
fedback
pace
pour
presence
resolve
sibling
staf
##ad
acuse
article
behaviour
drinks
functional
healthcare
input
miles
overweight
proced
profesionals
traumatize
belief
brave
bury
complex
cudle
distraction
existential
frankly
inability
patients
photo
schols
##fuck
exciting
fights
ie
insist
obsesive
sh
ta
tendencies
##si
abroad
coworker
graduation
heat
ice
intention
literal
resort
sertraline
tal
wind
##ite
##way
aid
bout
dificulty
faster
grandparents
guidance
impulsive
inteligent
internal
logical
maters
mins
names
sentence
survival
thousand
waves
working
##ical
##ide
beauty
buton
flow
fuckin
hok
ig
meditate
murder
pc
reveal
virgin
##ir
##ol
band
confusing
dismis
encouragement
float
fol
gad
sorts
wekends
##ian
arest
cher
core
data
dentist
enjoyment
holow
introvert
iritated
mas
mechanisms
overeact
paint
pit
rapid
reminder
strict
transition
wrap
##ay
##ines
beach
bro
broke
cognitive
conflict
factors
gender
halucinations
label
longest
nap
node
pe
reasure
services
sris
ungrateful
whilst
yr
agony
anoyed
cigaretes
envy
fianc
freshman
grandfather
height
invest
lamotrigine
psychology
repeatedly
shows
sky
unlike
vet
##ious
adition
cash
diabetes
ditch
explanation
explore
fantasy
grieve
interactions
limited
optimistic
recal
retail
scrol
si
strain
substance
thousands
typicaly
adopt
apathy
concerns
disgusted
dishes
dm
donate
fods
gut
lows
narcisistic
nodes
sucesfuly
waiting
witnes
##ps
##that
avoidant
bulet
but
church
defend
disociate
downs
duno
fate
hygiene
manifest
scar
shater
slit
strets
tolerate
trick
weaknes
workers
##ice
academic
breakfast
cars
climb
define
expose
gap
guide
harsh
hotel
popular
pregnancy
psychiatrists
rational
supres
types
artist
bs
caring
dick
enjoyable
grad
hapiest
holy
horibly
logicaly
paycheck
peak
produce
rash
slave
stol
tingle
twitch
um
##like
##sh
adjust
alternative
chair
crying
housing
iron
journal
loan
original
privacy
score
secretly
straw
tons
turkey
verbaly
##el
adicted
anime
asistance
cease
chemical
confusion
countries
crumble
cuts
demons
diseases
enginering
favor
file
flash
folks
items
kg
partners
patience
ps
pulse
sensations
throwaway
trafic
vivid
wound
zombie
##ence
abdomen
aderal
afterlife
album
consciousnes
development
diarhea
elementary
fish
fuel
iv
meals
performance
resent
secret
standard
stone
swim
walks
##la
##ma
ambulance
areas
aren
army
capacity
cases
dare
debilitate
excuses
fan
gaming
grand
grocery
healing
increasingly
inform
interviews
nail
negativity
pdoc
solutions
strongly
torment
unwanted
vs
warn
wekly
##ampxbi
##ial
##rate
##tic
abuser
bulying
clock
design
evidence
grip
inconvenience
intimacy
intimate
lights
market
monitor
numerous
poison
skil
smaler
span
talent
terifying
unknown
visits
##its
##not
##ta
cake
clif
contract
corectly
exhaustion
haras
hypochondriac
incredible
lecture
location
narcisist
rly
route
sing
site
spare
stigma
storm
taper
tone
##by
##com
##ey
##ile
##maybe
##ver
alah
bles
chicken
concept
decrease
faint
felow
flare
huh
intend
kindnes
ray
smash
status
stock
sufocate
target
##of
##ul
american
ber
boys
cringe
delusional
industry
invalidate
leters
mock
nothingnes
ocasions
pasive
pen
porly
shoping
sigh
significantly
technicaly
toth
urgent
youth
##di
##ls
apathetic
behaviors
cheap
colon
delay
doi
dust
ed
eternal
grasp
greatest
hangout
horor
ibs
inocent
jesus
lifetime
measure
mornings
ocupy
of
parties
rehab
romates
row
secure
slap
tols
##ber
##land
##ou
##they
aw
bals
christian
discusion
eating
eforts
excitement
facility
jyp
lease
legit
loner
penis
plague
sacrifice
schizophrenia
semi
sides
spirit
thisi
unmotivated
valid
##ating
##wel
adrenaline
arguments
aspects
brand
cousins
ekg
excesive
forms
grind
heartbroken
hundreds
influence
jerk
leson
manageable
omg
prolong
robot
sleping
soft
thesis
toi
tongue
videogames
##ative
##rd
abt
belt
bug
cards
cel
closet
dolar
gren
guitar
hurtful
hurts
initial
instance
mon
nedles
ocean
product
sane
sanity
scene
south
ticket
urges
##after
abandonment
amounts
anonymous
bond
combo
crime
driver
efexor
gradualy
hm
kidney
lash
midnight
mindfulnes
puke
repair
tf
trigers
##tive
##ual
als
apologise
asignments
asure
ban
boredom
breakdowns
crapy
depakote
eh
factor
grandpa
je
judgement
lab
outlet
procrastinate
shoes
techniques
temporarily
traped
traumas
yea
acounts
cloud
embrace
fogy
fotbal
gather
impulse
larger
marks
nuts
outcome
pair
parking
punishment
resist
scenarios
sport
stretch
strike
swing
tea
vicious
virus
##day
##ks
##ory
##ral
##time
abnormal
aceptance
asignment
clarity
combat
daydream
denial
embarasment
fighting
flashbacks
growth
hometown
hormones
introduce
libido
miracle
movement
playing
profile
reasonable
shadow
shortnes
thyroid
validate
wide
yoga
##ha
##ions
##ities
##please
##rn
beliefs
bi
bleak
clot
consent
determine
erase
injure
material
mature
max
migraines
molest
net
nowi
partly
presentation
quarantine
satisfied
satisfy
seven
shifts
sicknes
up
verbal
worying
##edi
##om
##ting
america
anhedonia
apeal
bestfriend
boundaries
breaking
cardiologist
chain
diagnoses
disconect
doses
downward
hapily
heck
insanely
itchy
km
mentality
negatively
pin
purchase
section
square
terminal
timei
uter
vacine
##go
##here
##lt
##ries
al
alarm
amazon
coleagues
cus
customers
dads
disaster
disconected
disturb
embaras
finances
flirt
fortunate
guns
heroin
ideal
inferior
junior
piza
reactions
retire
roughly
shine
shirt
sinus
spark
spoil
stuter
trade
uncertainty
undiagnosed
unit
volunter
yay
##ily
##sory
abdominal
acompany
alergic
canada
chanel
chaos
cleaning
combine
compasion
confide
cop
dysphoria
employe
gramar
handful
healthier
imense
inevitably
instant
invisible
jobles
lifes
loads
lymphoma
minimal
nope
obsesion
precious
review
shaky
slam
standards
style
swel
uh
unlikely
wisdom
##life
##ome
##ration
##ya
ambition
aswel
breaks
cage
calories
careful
casual
client
code
crepy
criticism
ensure
existent
foreign
groceries
highest
humiliate
introverted
motions
resentment
skul
urine
views
vitamin
wild
##bly
##da
##his
asthma
bat
biological
board
bruise
climate
comitment
competition
debate
department
destine
distres
duty
external
guard
halfway
heartbeat
highs
inteligence
length
muster
neighbors
ofend
owner
pasions
poverty
pride
roms
shel
spine
station
stream
tempt
theirs
traits
vague
vehicle
whine
##cy
##ds
##ft
##ho
##ier
##sion
absent
adulthod
ali
bones
bowel
brown
brutal
cares
causes
citalopram
colect
cos
criticize
deadline
disasociate
dreamies
eachother
enemy
exagerate
exclude
favourite
foster
klonopin
kne
linger
magic
numbers
oficial
pocket
regrets
ruminate
scale
seizure
subside
theory
treatments
##ably
##ga
##ms
##she
##then
ampxbi
apologies
apt
asholes
blury
boat
brag
briefly
characters
concrete
courses
cup
curl
employer
entertain
fantasies
focused
giant
importantly
lesons
ma
marijuana
mate
medium
metings
mobile
originaly
relative
resume
retarded
rob
rut
seizures
spite
supervisor
##gle
##ley
##thanks
aprove
articles
blur
bouts
ceiling
cm
confes
cycling
darker
detach
dumbas
easiest
enrol
europe
hypochondria
internaly
joint
latest
legitimately
mothers
object
organize
relive
sounds
spil
spin
string
subjects
suplements
tolerance
upi
wods
##ction
##ung
benzos
decades
delusions
exchange
grey
hury
laws
md
meltdown
nearby
oil
peacefuly
platform
pot
prepared
profesor
prospects
quote
reflux
shouldn
shove
spending
spit
talents
tech
threat
trial
vanish
weaker
##even
##her
##ig
##today
##ute
aneurysm
basement
bely
borow
coping
dearly
derealization
dors
employ
employment
exposure
extend
hospitals
objectively
paterns
pilow
poisoning
rabit
scholarship
sea
seat
shave
ship
shoe
sin
sorow
sorta
specialist
stairs
tap
themi
tinitus
topics
unemployment
##hi
##va
##work
antibiotics
atachment
blade
bom
burnout
cling
cream
cyst
degres
fb
gpa
houses
ignorant
inflict
meth
native
nurses
opening
oral
paralyze
payment
persistent
plant
powerful
praise
racing
realistic
star
thati
thigh
tick
wipe
##anyway
##dy
##king
##son
##use
aim
aspirations
automaticaly
blodwork
buspar
campus
childish
companies
compliment
comprehend
dedicate
deliver
emotionles
fe
hospitalization
inch
log
mais
masage
monthly
ods
oldest
ongoing
plastic
raya
reflection
rub
tinder
troubles
##ach
##ah
##ify
##mia
##nk
##ular
##ward
absence
aches
analyze
antipsychotics
chocolate
cigarete
discharge
dopamine
encounter
ends
escalate
forum
gods
humor
individuals
intake
ironic
lil
mail
meantime
meat
mediocre
outcast
player
presion
privileged
promote
qualify
reference
salary
socialise
spectrum
talks
thrive
tightnes
unatractive
unlucky
upcoming
veins
workplace
works
##ab
##bs
##fe
##let
##sa
aka
aplication
bath
bind
bost
browse
chemistry
disociation
domestic
energetic
entry
facade
faces
forehead
hahaha
initiate
insignificant
lech
loans
logic
milions
minded
moderate
mute
neighbor
organization
partialy
pcp
persist
relevant
snow
starting
tax
temper
trips
unecesary
unrelated
##ain
##also
##hip
##ings
##istic
##ns
##que
##sm
atribute
avoidance
back
boil
boyfriends
clasmate
criple
da
daughters
dive
flod
frame
gi
grave
hrs
hs
imature
intentions
loathing
mile
modern
netflix
nonsense
pupy
rapidly
regard
relaxed
resign
river
sales
scold
structure
sustain
tire
tl
##ization
##mo
##over
##tal
admire
apreciated
bd
beneficial
bounce
california
counter
disabilities
educate
excite
expenses
extended
fragile
generalize
generic
hesitate
imune
inapropriate
insecurity
intensive
magicaly
minimize
mizidc
nails
network
neurological
outlok
own
percent
phases
phrase
plate
preface
related
reliable
remote
reward
rights
satisfaction
shots
spouse
strategies
strive
sugestion
testing
uncontrolable
unlovable
vacinate
wander
yard
##any
##ator
##head
##hen
##ible
##ight
##kin
##people
##pt
##thank
##tor
againi
blanket
budy
circles
cocktail
coking
concentration
critical
dementia
display
download
dysfunction
efectively
empathetic
et
examples
fantastic
fatal
fixate
hil
hop
im
inspire
intent
itch
loving
metal
minds
motion
noticeable
oxygen
pants
perception
pharmacy
refil
register
reset
soy
stepdad
tag
tank
thick
tiktok
tos
trivial
wet
withdrawals
##end
##io
##ni
##our
abys
aceptable
aditional
alcoholism
antipsychotic
aparent
aplications
bang
consist
contacts
criminal
diei
distractions
est
exercises
failures
godnight
gratitude
gray
hateful
instinct
karma
maner
misdiagnose
name
neurologist
neutral
operate
pa
patch
procedure
promises
qualified
quietly
realisticaly
recomendations
relieved
secondary
shrink
spiritual
stabilize
strip
stumble
superficial
unique
unwel
vote
whel
##ca
##hat
##hod
##ti
##uf
agitated
alergies
anounce
apropriate
autopilot
blody
chapter
clasic
closed
congratulations
destruction
devastating
dificulties
dirt
disagre
drawing
ego
else
esay
establish
feb
fund
handsome
horny
ilusion
india
indiferent
jack
learning
library
limbo
mundane
ocasion
outgoing
outpatient
pesimistic
phobia
positivity
priority
raw
restlesnes
revolve
ridicule
shed
spel
suposedly
threats
tirednes
tragic
twenties
virtualy
whore
wire
york
##ince
##ingi
##ons
altogether
asian
ativan
await
beings
belongings
bupropion
camera
coleague
compete
conected
contain
continuously
cptsd
depresant
discipline
eternity
flag
gag
glases
greater
hearing
host
makeup
masters
milk
model
moral
nonstop
pink
plain
prayer
psyche
rationaly
realy
reckles
referal
reputation
script
serotonin
solely
sting
surprisingly
technology
tendency
valuable
vice
violate
wine
wishes
youngest
##cs
##every
##icaly
##list
##mp
##res
##tate
##ude
##ving
acomplishments
ai
aniversary
bawl
beats
benign
berate
bizare
blesing
bust
clinicaly
darkest
diabetic
doubts
dozen
dysfunctional
filter
finance
frozen
galblader
hasn
honesty
imply
iq
iritability
ironicaly
junk
labor
liar
mere
migraine
naive
nerves
observe
ofc
openly
paperwork
pety
pleasant
programs
racist
repetitive
rescue
sher
sothe
sweating
technique
ties
visual
vyvanse
warmth
weirdly
##because
##gs
##late
##pe
##sing
##wa
ambitions
au
bags
bits
blast
cb
cbd
cheaper
chery
clarify
coma
copy
coz
creativity
dbt
deprive
draft
fearful
florida
fourth
fridge
functions
gentle
heartbreak
hearts
imensely
intentionaly
leak
liquid
mildly
mourn
noises
ordinary
overnight
pause
permision
publish
pump
restrictions
silently
sites
software
sole
sophomore
steady
subconsciously
suply
tackle
values
wean
##bal
##dle
##however
##mi
##most
##nts
##ny
##sive
##tch
##ux
##ws
alergy
befriend
blog
centre
cities
coke
como
constipation
corpse
crowd
curiosity
custody
default
dem
desperation
downstairs
elevate
erors
highway
hint
homophobic
hunt
images
impresion
iphone
legitimate
lightly
loathe
mirtazapine
neighborhod
ni
nursing
obese
poke
polite
progresively
purely
risky
scrape
solo
submit
substances
suroundings
tato
teror
twist
unloved
unpleasant
upbringing
upstairs
virtual
##are
##gh
##ingly
##men
##ton
abilities
ac
achievement
anyones
australia
balcony
basketbal
belitle
buble
casualy
chew
competitive
corporate
cycles
dady
desires
docs
ecg
emails
evolve
fathom
felt
fry
genetic
girlfriends
hat
hideous
hunger
lips
medicaly
ne
nicotine
obtain
outi
painfuly
per
persons
phones
piano
plot
polhtpswreditcom
political
resource
restrict
scans
sensitivity
separation
shal
slide
stif
unfortunate
untreated
vary
websites
##ap
##co
##uck
##which
acomplishment
acquaintances
acute
adictions
agoraphobia
asesment
autoimune
backstory
bpm
carbon
charges
coach
comforting
couples
cramp
dayi
depth
director
flaws
foundation
funds
garage
gone
harmful
ibuprofen
incompetent
iritate
ki
lawyer
lesen
meh
nedy
onset
package
polar
practical
pro
prone
replies
restart
sa
severity
shalow
sneak
stars
therapeutic
translate
uncertain
uncontrolably
upseting
usa
vodka
web
zom
##ake
##ans
##cal
##ei
##fuly
##ics
##ire
##ja
##last
##ments
##ology
##some
##ties
##zy
abortion
arange
auto
baseline
be
canabis
christ
compliments
console
deadlines
deaths
drivers
driving
endlesly
era
expand
famous
fck
fels
fortunately
fucks
genes
helpi
hypo
ilegal
inadequate
jealousy
knes
legaly
magical
mates
merely
misunderstod
mountain
naked
navigate
nothings
ops
pale
poem
scholwork
sneze
spike
statement
steam
stuborn
suit
temperature
thr
tingling
understandable
va
vertigo
wounds
##atic
##ime
##ki
##lo
##per
##ted
##ui
##ways
acurate
adapt
adore
advanced
advocate
alert
alien
and
anorexia
antisocial
arise
avail
budget
came
celexa
concert
convo
cowardly
cramps
dip
discourage
dorm
ele
ending
euphoria
excruciating
expectation
fatigued
folowing
heartbreaking
hesitant
hugs
instances
international
lifelong
mouse
my
nonetheles
ounce
pic
planing
politics
productivity
records
relaxation
shorter
singe
spots
talkative
taxes
ultimate
united
vape
##ability
##ba
##bo
##itis
##ka
##op
##ose
##pd
##tldr
##ulation
##vable
##zing
academics
anxieties
anythingi
apology
aproval
bachelors
bars
bot
camp
clasrom
clients
comute
conclude
decay
dental
disregard
document
dwel
entitle
etci
fancy
flush
forbid
furious
harasment
heri
horific
imposter
inflamation
ladies
lame
landlord
limits
loking
magnesium
manipulation
novel
orders
persona
perspectives
pos
procrastination
rinse
roten
salt
sexuality
shits
shotgun
smth
stack
stupidly
sum
thelmasherbs
toy
und
vibes
worthlesnes
writer
yearsi
##als
##bility
##can
##cing
##fy
##ger
##ina
##ko
##ler
##pas
##ution
##where
afair
am
bodies
bowl
buspirone
chaotic
charity
chemicals
chronicaly
clown
cocaine
deadly
degrade
disapointing
elder
features
firm
frequency
generation
hip
husk
idek
imagination
imbalance
intensity
juice
keys
lastly
lord
lurk
making
nedle
no
obsesively
obstacle
op
outsider
pd
pneumonia
privilege
products
rusia
sack
saying
sincerely
souls
stresors
sweaty
twin
twisted
uma
unexpected
unsafe
until
unworthy
vilage
wod
yknow
##bi
##ere
##nly
##pose
##sis
##wk
alonei
ami
ankle
anoyance
ases
backwards
bail
beteri
bomb
breaths
brick
cast
cave
chin
compromise
dawn
deficiency
delusion
detect
determined
diary
disrespect
disturbing
drasticaly
electricity
exacerbate
factory
facts
figures
flop
folowers
fraud
french
fundamentaly
gerd
germany
graphic
headphones
hod
homelesnes
infront
iresponsible
it
item
ketamine
leader
literature
matres
melatonin
nutrition
objects
papers
participants
prescriptions
psychologists
rat
reasoning
rebuild
roler
slump
sm
squeze
stabilizer
subtle
thekwen
transportation
tricks
unaware
unbelievably
underneath
visible
yelow
you
##ard
##back
##der
##ex
##hot
##ital
##ors
##stic
##table
##ud
##ues
abort
absurd
academicaly
alternate
angel
asap
bald
bash
bend
bers
bible
brink
bugs
careles
carers
cashier
circumstance
defective
definition
depersonalization
devil
echo
entertainment
equaly
evaluate
everythingi
excesively
farm
firstly
flesh
fleting
fold
forest
forgivenes
fulfilment
godnes
golden
gosh
gret
hotlines
impending
intensely
interfere
journale
kiler
lifeles
mandatory
masturbate
mini
monoxide
north
olanzapine
ordeal
pages
philosophy
pilot
property
puberty
repres
rice
safer
sauce
sentences
shrug
sis
stalk
storage
supermarket
tablets
talented
texas
the
thril
toys
user
victims
vitamins
vraylar
zyprexa
##dk
##ea
##ery
##ging
##han
##ht
##ji
##lation
##mate
##nic
##ric
##sy
##ten
##uate
##uk
##ulate
aleviate
anticipate
artery
bay
boxes
boze
brat
candy
chalenges
checkup
chese
comfortably
conservative
consult
cunt
delicious
der
description
discard
distracted
eligible
epilepsy
eror
examine
excelent
facial
flawed
frely
hapend
herei
holes
iam
imaginary
indicate
infect
inherently
intervention
island
lake
locate
mal
melt
mody
mortgage
mucus
nephew
orgasm
overload
painting
pinch
powerles
purposely
regain
retain
retard
server
shocked
slice
smarter
spanish
spasms
speaker
stabilizers
subconscious
subs
surf
survivors
tingly
toxicity
tragedy
transport
unintentionaly
variety
wits
worthwhile
yup
##done
##gy
##ld
##ope
##ping
##right
##rol
##ula
##urs
##ust
##ven
##very
##vity
##yi
amoeba
apealing
arogant
aspergers
batery
ben
biopsy
bumps
cardiac
cherish
coincidence
concusion
costs
defense
depest
detailed
dignity
disclaimer
discord
disociative
disrespectful
dosent
dying
electric
employes
equal
evaluation
fam
fes
furniture
gaslighte
genetics
hal
headspace
ignorance
injuries
laughter
lazines
league
medicines
mi
nah
national
niece
panicky
paths
pcos
peoplei
plz
policy
president
primarily
promotion
propranolol
psychopath
rationalize
recomendation
relatable
remorse
resistant
seasonal
sensory
seting
setings
spray
suitable
tease
temple
tenagers
trend
tres
trileptal
tuition
tumour
unconscious
walow
whatnot
wiki
worlds
yada
##ade
##ang
##art
##ations
##god
##hs
##ip
##ium
##logy
##pa
##pel
##phobia
##ster
##take
##these
##ule
##vation
##ye
alongside
ana
asign
bachelor
bastard
bio
bird
blackout
bland
blink
blis
chers
chinese
coin
compasionate
confirmation
convenient
counselors
dehydrate
demon
destiny
dilema
dozens
drank
dvt
east
ent
esential
flashes
fluoxetine
freaking
functioning
glue
halucinate
heads
helium
hindsight
horify
idc
insensitive
iritation
knot
lb
lip
lover
maintenance
movements
noti
outa
outbursts
panicked
paragraph
pasively
permit
physician
playlist
pmd
population
prayers
prioritize
protein
qualities
rejections
rolercoaster
scum
shithole
slack
sleples
snapchat
specialy
static
statistics
stupidity
suny
survivor
suspicious
systems
tablet
toe
ultra
uneasy
unrealistic
unusual
weirdo
windows
##about
##ado
##case
##dly
##have
##ken
##ku
##lock
##more
##nate
##py
##rm
##uch
##ume
##uring
##val
##with
absorb
acquire
acts
aftermath
airport
apreciation
arts
atraction
babies
backs
bagage
barier
biology
botles
bul
closure
compensate
corona
corupt
cravings
cymbalta
defensive
digital
drastic
eliminate
emdr
entrance
exception
expense
fcke
finals
fml
ft
garden
grace
hardcore
here
horendous
ideations
if
impatient
importance
instability
leukemia
maximum
midst
notion
paralyzed
parasite
pics
positives
posture
programing
punching
puzle
realisation
resentful
reverse
rusian
scam
shets
shoting
showers
sht
shun
skiled
smack
stepfather
strangle
suicidality
teaching
temp
tremendously
tremors
twitching
uber
vibe
volume
washing
weren
wilpower
zaps
##body
##cation
##che
##form
##ibility
##int
##ional
##ky
##love
##night
##ometimes
##red
##rk
##rom
##ther
##uous
achievements
admitedly
aple
barley
benzo
bin
bleding
bo
bubly
bucket
capitalism
clonazepam
clouds
clubs
comparison
crushes
dating
diploma
disable
disclose
disown
dominate
elevated
equivalent
euphoric
evict
experiment
expire
fathers
gums
hamer
hasle
idealy
inept
instal
insults
interupt
italy
john
jus
justice
layer
lightheaded
listening
lists
lo
majorly
memes
mision
mole
morbid
mots
norm
obligation
opose
orange
overseas
overwork
painlesly
pan
phd
plants
plead
plug
psychiatry
recognise
recognition
regards
relation
resonate
retirement
romanticaly
sharing
snack
solace
speling
spels
streses
strongest
sunlight
taler
te
trait
transgender
tryna
tumors
underlie
unexpectedly
upside
uti
visa
voluntarily
wealth
wealthy
weights
zu
##cus
##help
##hing
##ins
##isation
##ists
##ivity
##load
##ning
##rp
##tical
##tle
##uld
##vor
##while
acidents
afloat
albeit
alter
anguish
bearable
behavioral
beta
breasts
bum
buter
buz
calmly
chek
clothing
complaints
complications
conquer
consultation
depresions
digestive
dish
dysmorphia
easter
elbow
electrical
enable
enthusiasm
excel
fits
fluctuate
forums
fruit
fulest
fuzy
gabapentin
gambling
gredy
groin
hapyi
hehe
heighten
hilarious
humiliation
hype
irelevant
lader
lethal
likes
links
lumps
morei
muchi
nonexistent
outright
outweigh
paracetamol
ponder
posesions
positions
poster
pra
procedures
propose
protection
quarter
racism
rapist
rates
regulate
rib
rubish
secrets
shiti
silver
simultaneously
smoker
sociopath
spotify
suspend
swiming
taunt
theme
thumb
trace
underweight
undo
unsucesful
upload
vegetable
whatsap
xb
yeling
##ack
##ak
##anyone
##anyways
##down
##eries
##gate
##iable
##ification
##ner
##ntive
##place
##rable
##rl
##side
##thing
##uation
##ugh
##ural
##ves
acquaintance
adictive
adventure
afectionate
agency
articulate
asist
barel
basebal
bathe
bisexual
bismilah
blader
bleach
bridges
checks
chils
clench
clingy
directions
dismisive
edgy
erands
everythings
expresion
familys
frelance
fucker
gifted
gogling
gold
hardships
hike
homes
hyperventilate
impend
improvements
incase
inches
incurable
institution
instructor
interpret
invitation
involuntary
iso
ive
japan
luxury
lyrics
madnes
mama
mgs
mo
moron
musician
mv
nothingi
nsfw
ny
obligations
ocurence
oni
opt
organs
overtime
partial
physics
pig
po
podcasts
poetry
preferably
provider
quen
radio
rambling
razor
reciprocate
reviews
risks
safely
sale
scater
scientific
seker
select
shred
spoiled
stages
stray
sumary
suplies
talente
traditional
trazodone
turmoil
undergo
undergrad
undesirable
vain
van
vein
warehouse
wether
whiskey
workload
worsei
yawn
youi
##bar
##cial
##cies
##em
##hol
##lier
##lines
##mic
##ncy
##rative
##ria
##tes
##ualy
##ub
##who
##wil
##ys
##za
abruptly
adverse
alternatives
amount
apendicitis
benadryl
burning
chick
comeback
comonly
compulsive
confrontation
continuous
contrast
cum
damit
drs
duck
economy
enginer
executive
flower
flowers
fluid
funk
gifts
hela
hero
hesitation
ich
ima
incoherent
independence
indulge
insert
interpersonal
involuntarily
leap
lethargic
lick
lucid
managers
mindles
mold
muscular
narow
oficer
olds
overdrive
panel
pins
pleaser
portion
prevention
prices
problematic
production
profesors
reconecte
renew
resident
respectful
rural
sand
schizophrenic
shameful
stal
stores
strangely
sympathetic
tickets
tisue
todler
tremble
tylenol
ulcer
universities
unreasonable
upgrade
vacations
versa
violently
walet
welnes
whisper
xbox
##act
##antly
##bie
##bit
##bok
##cky
##ets
##ew
##giving
##inate
##ind
##itate
##jo
##lesly
##lin
##live
##nal
##oh
##ok
##orm
##osis
##rade
##rap
##ron
##tar
##tly
##unt
align
asistant
aspirin
atached
atheist
awayi
ba
bday
beloved
blades
bread
bruh
bursts
chalenging
chats
chickene
china
coleges
comited
compound
consequence
construction
creature
cv
depresioni
device
devoid
diminish
discount
distraught
documentary
dodge
duh
exageration
format
fs
fwb
gang
gen
gently
grown
hospitalise
humble
hydroxyzine
inconsiderate
indian
inspiration
internalize
investigate
irony
kidneys
king
knives
languages
largely
leaf
lighter
masturbation
melanoma
mil
muslim
nearest
nhs
now
objective
ofline
ou
paxil
payments
pised
please
plumet
privately
probation
profesion
provoke
pulmonary
purposefuly
races
reluctant
saden
scheme
semblance
similarly
slower
smoth
snacks
sneaker
soulmate
steadily
stols
streak
studio
sucumb
swep
thoroughly
tier
tour
tremendous
trough
unfamiliar
venlafaxine
virginity
wil
wit
##ai
##away
##bone
##cribe
##etic
##ever
##everythe
##force
##gn
##hey
##ield
##ior
##ivate
##light
##mon
##pice
##rch
##recently
##rial
##ril
##rin
##shit
##sometimes
##tie
##tone
##und
##verse
ace
acomodation
ambitious
argh
armpit
asperger
audio
auditory
aunts
authentic
bel
betrayal
blend
bob
bodily
boundary
briliant
bulies
calmer
calorie
checking
chips
cholesterol
chunk
claw
coast
coat
colors
comunities
con
creatures
cue
defeated
detached
dia
diferences
disgrace
downplay
dudes
earliest
elderly
es
expert
facetime
farewel
fashion
fentanyl
films
flags
forgot
frightened
gamble
gaslight
gasp
gear
gig
gras
gred
grom
halway
hormone
horse
hypocrite
icu
imigrant
impres
indiference
indirectly
infections
infinite
insanity
jan
limbs
london
longing
loyal
meme
mercy
musical
organ
ostracize
ot
palm
pogba
postpone
powder
prep
presured
priest
protest
psycho
purge
quetiapine
quicker
relations
replay
requirements
rexulti
rocks
scariest
schedules
simplest
sociable
spasm
stain
standing
tatos
technical
themself
therei
thighs
tracks
tutor
twinge
twitpic
uncles
unfixable
unimportant
unmedicated
unreal
whiny
worm
##active
##ax
##come
##don
##hank
##hy
##ied
##ility
##ination
##ino
##itude
##ized
##lam
##lash
##li
##logist
##mal
##ole
##oma
##ong
##other
##ple
##rts
##tan
##ua
##ware
##wn
ab
advices
anual
artists
bilion
bonus
cancers
ce
charm
chip
chuby
clueles
coaster
colonoscopy
consciously
dae
destruct
dident
disrupt
drip
elaborate
empathize
encouraging
enormous
equipment
escapism
extensive
fans
farther
feature
feminine
fiber
flashback
flunk
folk
fundamental
furthermore
generalized
generous
german
gon
gonei
gorgeous
goten
hints
honor
horid
hormonal
humiliating
impose
incorect
injection
intentional
iop
jai
joints
jokingly
judgmental
leadership
marketing
masively
maths
miserably
mountains
multi
mysterious
nag
newly
nicely
obstacles
odly
oneself
optimism
orient
participation
percentage
pimple
pitch
podcast
pose
practitioner
prime
profesionaly
pub
radiation
reconcile
restrain
ritalin
schizoafective
sedentary
shambles
situational
skyrocket
slut
soak
sobriety
speaking
spider
sue
suficient
suicidewatch
suplement
sweling
testosterone
tetanus
therapies
thingsi
thx
tighten
tmi
toes
tolerable
traumatized
traumatizing
unalive
unconditionaly
universal
username
walking
west
why
yous
##ated
##ave
##aving
##board
##cd
##cher
##cover
##ese
##fed
##hand
##hit
##house
##ik
##inity
##iser
##ising
##ition
##min
##ndo
##ously
##piration
##po
##ptic
##quent
##rain
##rator
##rds
##ren
##rous
##since
##til
##tis
##top
##uce
##uh
##vel
##vile
acidental
acomodations
adequate
adolescence
afordable
agravate
alienated
apartments
atendance
athlete
bake
bestie
bias
birds
birthdays
bla
brainwash
bruises
burdens
burner
carei
cbc
celphone
cels
central
ches
colour
concepts
consumption
cripled
crucial
delivery
disapointe
divide
emphasize
envious
escitalopram
eve
exhibit
extrovert
favour
fist
friendsi
gene
golf
hahahaha
hantavirus
harmles
hearted
horizon
inescapable
jade
jam
jitery
ko
leser
lorazepam
lust
lyme
matches
memy
mentions
mexico
narative
narcisism
nicer
nostalgia
nuisance
obligate
operation
pep
perpetual
pierce
pinpoint
pointi
poses
positively
prisoner
prob
proportion
psychosomatic
psychotherapist
pt
rack
ramadan
recur
reditors
relocate
revert
rumination
sader
san
scrub
ser
serial
shops
signal
sincere
socializing
societal
soldier
solitude
spontaneous
stimulants
strokes
sunshine
sustainable
tabo
tempting
tenho
that
thirty
this
tiniest
to
traumatise
tumy
uncomon
understandably
upbeat
vaguely
vomiting
wayi
weirdest
wep
wilingly
wither
##ache
##aid
##ancy
##ants
##ash
##ast
##au
##ben
##bery
##cise
##ded
##does
##ect
##ek
##ern
##fal
##gent
##gin
##ick
##ift
##izing
##je
##lant
##lar
##mates
##mb
##nch
##ore
##point
##quil
##rage
##rance
##row
##sal
##ture
##ulator
##ury
##ush
##usion
##watch
##xt
##yo
##zo
abusers
acesible
afterward
alhamdulilah
alt
anchor
angst
anonymously
backyard
bark
ble
blesings
cafe
cautious
cement
chalk
charismatic
chemo
cis
clearer
colds
complaint
considerate
county
craft
criteria
criticise
cynical
dat
deaf
debts
declare
ded
depths
dermatologist
desert
destination
devices
distresed
dumbest
economic
egshels
el
em
england
envision
exclusively
exploit
extension
fiction
filth
fle
fo
fortune
fr
france
futile
global
godbyes
grumpy
hermit
hostile
hum
indecisive
instincts
institute
invalid
judgment
jumbled
kidnap
lectures
locker
lom
loudly
mend
mf
mistreat
motorcycle
mph
noisy
opiates
overdue
paradise
paralysis
parental
phenomenon
pitiful
portfolio
predict
qualifications
quirky
quiz
recieve
reconect
redo
reinforce
represent
resemble
residence
residential
rocky
romance
seal
sei
side
soap
socer
sour
spain
spam
species
stagnant
std
stimulation
sufocating
surgeon
tender
ti
tic
timeline
timing
tms
truthfuly
tune
une
vacum
viral
walmart
warant
welp
worldi
wrestle
##ars
##cable
##ding
##gen
##ght
##honestly
##iate
##ign
##ision
##js
##lic
##low
##ney
##nia
##ove
##rant
##ras
##rent
##rest
##ring
##ris
##ship
##sity
##tation
##ters
##tin
##une
##urse
##urt
##uz
##view
##vo
##wen
##zepam
adicts
admision
afirmations
aforementioned
aged
agonizing
amd
aprenticeship
atain
athletic
basket
beard
beast
bloat
boarding
boses
buildings
busineses
cap
carefre
caregiver
characteristics
charming
cheks
citizen
cluster
competent
conceive
condom
consequently
consideration
cortisol
cps
crowded
deals
decently
dehydration
dent
disposable
do
dots
dropout
dwindle
dysthymia
echocardiogram
egs
ekgs
erection
execute
fidget
fields
fitnes
folish
fulfiling
fyi
genius
gladly
gosip
heavier
ho
incel
insulin
investment
ireversible
jog
judgemental
ken
kindergarten
launch
ldr
lets
lsd
medicaid
minus
naps
nasal
necesity
neighbour
nightly
nod
oclock
organise
painkilers
para
pasword
patrick
personalities
picky
players
portray
potatoes
preferences
procesing
profit
progresive
proly
psychologicaly
pursuit
radiate
reader
reflex
remark
remedy
replacement
repulsive
retake
rhythm
sandra
sandwich
saving
scares
scores
screaming
sem
sexy
shet
sicken
sized
somethingi
statistic
strategy
surgeries
talking
testicular
tiredi
towel
ugliest
unconditional
vast
viable
victory
visibly
welfare
weli
xd
xr
ye
yearn
yep
zebie
zo
##ame
##ase
##ath
##boy
##date
##did
##dol
##ease
##iation
##iest
##ique
##iv
##ively
##iz
##las
##lf
##lich
##mas
##nail
##nails
##ncies
##ort
##rading
##ray
##ried
##rier
##rophy
##self
##sit
##ste
##tain
##ticaly
##tics
##vise
##vr
##wal
##zen
acumulate
acurately
agitation
agresively
alienate
alike
amplify
aproximately
arse
arthritis
asd
asexual
asia
balanced
bam
bedriden
bedtime
blunt
bobs
burp
cabin
calf
chart
cheating
cofin
companionship
conclusions
conduct
conflicted
contempt
continualy
convey
cuting
dan
daydreaming
dealer
deceive
documents
downright
duration
ela
elsei
evenings
fewer
fibromyalgia
fixable
flex
flexible
gatherings
glance
glimer
godi
gofy
gravity
hinder
holter
hunting
hypersexuality
imaginable
incomplete
indors
inject
intervene
intimidate
ipad
iregular
jaz
joe
jolt
kilers
knots
leaves
ledge
likelihod
lockdowns
lotery
louder
mantra
manual
meningitis
mirors
mising
mitigate
moderately
monsters
mount
myself
necesities
nerd
noticeably
ofense
organic
overlok
overwhelmingly
paini
parenting
parkinsons
plates
platonic
posibilities
postpartum
premium
prompt
pros
psychotherapy
publicly
rampant
reasonably
recipe
redem
relentles
relentlesly
rep
respiratory
restaurants
retreat
revenge
ridle
runaway
seasons
selfharm
simulation
sinto
skeptical
smiles
somedays
sorows
sources
specialize
starbucks
starts
stimulant
stimulate
strengthen
suferers
sunset
superior
surender
tangible
tantrums
theatre
toast
todo
trail
treasure
trintelix
unavailable
unconsciously
underlying
undeserving
unecesarily
unhapines
unhelpful
unprotected
unresolved
updates
usage
valium
vocal
vulnerability
welbeing
wfh
woden
wolf
worki
worship
##ada
##ando
##ause
##bles
##cate
##ched
##clusive
##dent
##des
##die
##ently
##everyone
##fo
##gain
##ges
##gt
##hold
##hur
##ians
##ids
##itals
##kes
##kind
##lon
##los
##mation
##nde
##ngi
##nor
##og
##only
##opic
##reak
##rily
##rine
##sation
##sia
##tant
##udge
##ures
##vert
##wi
##wo
##xy
absces
aditionaly
afairs
amazed
amy
antibiotic
apnea
awfuly
backpack
batch
becouse
bloated
bravery
budies
caling
can
certainty
certify
cervical
cherful
civil
closely
clots
cluter
colective
compatible
concerta
confidential
contradict
contrary
counsel
cracks
creator
curb
damned
defect
degenerate
deprese
deprivation
detrimental
dire
disorient
dong
dp
du
embolism
emo
employers
engagement
engine
eratic
exes
exponentialy
eyesight
familyi
fastest
fence
fifth
fiting
flaw
floaters
fond
forearm
friendles
glow
gore
hack
heartburn
heh
hels
hugely
hypersexual
impediment
inadequacy
inferiority
ini
isi
iud
kiten
kratom
lap
legacy
lesbian
liquor
livei
lmfao
logistics
lovei
maladaptive
mar
materials
methe
migration
mindlesly
morals
motor
mr
multiply
mums
naging
narcisists
nct
newborn
nicht
nihilistic
obnoxious
oficers
os
ounces
ovarian
pad
pasport
perfection
pms
pots
prick
print
progresion
prospect
purgatory
rap
rear
recluse
repay
reunion
ridiculously
roads
rp
scalp
scholing
senses
singing
sinuses
sip
snapy
stocks
stunt
stupidest
subjective
subredits
substantial
sufocated
sweats
teams
textbok
throb
tinyurl
transform
tub
ty
una
unbelievable
unclear
understands
unfulfiled
unlock
uplift
users
voicemail
we
whack
wkwkwk
zap
##ag
##ards
##ava
##aze
##bag
##box
##cture
##dies
##ef
##ete
##ety
##everything
##first
##from
##gene
##give
##gram
##hole
##hop
##human
##ix
##ject
##ket
##lies
##lr
##mos
##myself
##ntly
##ough
##oughi
##pite
##pm
##pre
##quot
##racy
##rian
##ribe
##rim
##rite
##rize
##roid
##ros
##rse
##try
##uit
##wd
##wind
##yet
acountable
admin
ads
adventures
advisor
agoi
agrement
alivei
amends
anywayi
apartement
artistic
asf
author
authorities
authority
award
bathtub
batles
bench
beneath
boxing
bricks
brutaly
bucks
canker
cans
carefuly
cloudy
congrats
cons
controling
converse
cord
corelation
cosmic
cries
dam
darn
deliberately
deplete
dictate
digest
discontinue
discovery
dragon
drowsines
elephant
endoscopy
entirety
estou
examination
explicitly
externaly
extroverte
facilities
fandom
fav
filthy
flake
forgetful
formating
fracture
frightening
halucination
hangover
havnt
headi
helper
highlight
hits
homeschole
hotels
hrt
hypothetical
iminent
implode
independently
ingredients
inhale
inocence
intelectual
journaling
kicks
kity
known
laughs
lend
lengthy
limitations
liter
lonelier
loses
loves
maker
masks
mat
mcdonald
meit
mentalhealth
microwave
mimic
mindful
miscariage
moles
motel
mush
mystery
narc
nation
neighbours
nodles
normalcy
notifications
nyc
ofensive
ouch
overflow
par
photography
php
pipe
platitudes
prefered
profusely
prostitute
psychic
receptionist
reduction
refund
remary
resilience
roles
setback
shirts
sixth
sofa
sons
spaces
specify
spicy
spirituality
stats
streaming
strep
stretches
strictly
subhuman
subway
suferer
suicides
sureal
taint
tale
thirsty
thoughtsi
tightly
todays
tonsil
troubled
tube
twitches
undergraduate
undiagnose
unfit
unpredictable
utilities
vegan
vividly
vor
waist
wedings
went
western
whelchair
withi
wonders
##ace
##ances
##ange
##atives
##bed
##before
##bt
##ces
##chol
##cle
##con
##ctions
##days
##dic
##dl
##dor
##fire
##firulah
##gies
##gment
##godbye
##ground
##gulation
##health
##hope
##hor
##ified
##imate
##imes
##log
##mark
##mbut
##mente
##nie
##ock
##omy
##pay
##pect
##ponsive
##pres
##rah
##read
##rms
##rop
##rot
##ru
##rus
##sar
##sed
##sure
##tag
##therapy
##through
##town
##trust
##uckle
##ura
##utm
##uy
##viation
##vy
##wise
##worthy
##yes
acomodate
agenda
agresion
akathisia
amazingly
anemia
anesthesia
asets
audience
automatic
backup
bei
belive
bender
bites
blatantly
bm
border
buterflies
camping
caretaker
carpet
category
cathartic
celebration
centers
chanels
chop
cliche
coherent
colection
cordination
corelate
coverage
cursed
curtain
cysts
delta
delve
demise
devote
disolve
down
downwards
draining
dvd
dx
eager
eczema
eficient
enthusiastic
fart
females
fend
fester
fictional
files
fireworks
fkn
fmla
fori
formaly
frighten
frustrations
funding
ga
gate
gigle
glimpse
going
hardship
helplesnes
hodie
hopelesly
hpv
husbands
incidents
indication
instructions
insuferable
intestines
invade
itit
japanese
jobi
ke
labels
labour
lurker
masculine
melancholy
meu
mice
minha
miraculously
misfortune
mixture
monkey
moraly
motivational
mutualan
navy
notification
notify
oblivion
observation
ofers
ohio
okayi
outcomes
paroxetine
pat
patiently
paul
perpetualy
perpetuate
petrify
pleasures
presures
prevalent
prey
principal
protective
province
psoriasis
ra
rebel
redirect
region
reincarnate
reincarnation
reliant
rental
repulse
requirement
reschedule
reserve
restore
rm
rocket
sanitizer
scholarships
scientist
seize
seking
selfishnes
setup
sever
shade
shadows
shocking
sickly
sir
slim
slur
smh
smothly
somone
spon
stares
sternum
stink
strenght
stufy
suceses
sunrise
sustenance
tad
template
testicle
thc
thirst
tok
tracker
ultimatum
unatural
unforgivable
versus
vez
voluntering
weaken
weapon
weki
wich
winer
yeari
yk
yok
##acy
##ality
##alize
##ane
##ape
##cular
##culation
##dont
##dure
##ece
##ection
##ednes
##ement
##ene
##ens
##eral
##face
##fucke
##game
##hel
##hibition
##hic
##hm
##hn
##ican
##ication
##icit
##idge
##ike
##ister
##lay
##loke
##lone
##mber
##mps
##nah
##ngs
##nothe
##nto
##oe
##ogist
##old
##ologist
##onist
##ophobia
##pine
##porate
##print
##pse
##rab
##ream
##redit
##reso
##rie
##rieve
##rit
##sk
##stand
##sts
##terate
##tions
##tort
##tory
##tres
##truct
##uish
##uke
##ult
##umble
##una
##unge
##urate
##vin
##walk
##weight
##west
##wing
##wod
##xiety
alarming
alas
albums
alienation
alowance
ambien
amen
ampnbspampnbspampnbspampnbsp
aroundi
artificial
audition
aura
awkwardly
babe
backfire
badi
beating
becuase
bfs
blackmail
blisful
blob
boiling
cable
calmnes
cam
cancerous
cart
catastrophic
cereal
certificate
chuck
cinema
citizens
cleaner
cokies
comedy
compulsion
conscription
construct
credits
crosroads
cruise
crutch
crybaby
cues
cult
cups
cyclothymia
dang
dangerously
daytime
deathly
demanding
demotivate
deposit
destres
detox
dim
dining
disc
disipate
distinct
donei
donut
dosages
dot
downfal
downvote
dreadful
driveway
drops
drowsy
dumber
duties
dye
editing
ek
enemies
entail
environmental
epiphany
ethic
eventual
exhale
existance
experienced
explicit
fantasise
faty
faulty
flames
formal
fuckfuckfuck
funiest
gaslit
gastritis
gauge
geodon
glorify
goi
grams
grandiose
guidelines
gum
haircut
helish
himi
huhu
impulses
impulsively
infidelity
initiative
insides
instrument
intern
involved
ir
itand
ithe
itso
jewish
junkie
kan
lasting
liability
lifting
lighten
lily
lining
loyalty
mac
mcdonalds
mdma
meif
membership
mesenger
michael
monotony
mortality
motherfucker
mourinho
mud
neurotic
nicest
nostalgic
notebok
nunca
nvld
observer
oncoming
oregon
othersi
outburst
outfit
overpower
overtake
palms
pasing
pedophile
pel
peny
persuade
peter
philosophical
phlegm
pistol
plunge
politely
potato
pq
prestigious
pristiq
prom
prominent
promising
proposal
puncture
purposes
questionaires
qui
ramp
rashes
rats
reminders
reputable
resistance
restrom
rethink
retrospect
ribs
romanticize
roting
routines
rumor
samples
saphris
saw
scenes
scisors
scramble
seler
semesters
shelf
shynes
skincare
slash
slepi
smartest
smother
socks
someones
started
statisticaly
steroids
sway
swetest
tachycardia
temptation
tenis
texting
thankyou
thorough
thst
ticks
tim
tought
trains
trials
turning
twt
units
unreliable
unsuportive
unwiling
urologist
valve
variant
vesel
veterans
wards
warior
wbc
whim
wierd
wikipedia
witch
withold
wrench
xray
##ac
##ages
##ament
##apist
##ates
##az
##bel
##canot
##cend
##centric
##cfly
##corn
##den
##dian
##easurable
##ec
##eve
##fie
##fish
##fter
##gic
##has
##iably
##ient
##igent
##ima
##inal
##inating
##ini
##ised
##iy
##kt
##lent
##liest
##long
##lot
##may
##mble
##mg
##ml
##mthe
##nc
##nst
##ogram
##ological
##ord
##ox
##plication
##ply
##position
##post
##rel
##rious
##rist
##rity
##rium
##rsion
##rto
##rupt
##things
##tors
##track
##trist
##uito
##urity
##uv
##vant
##vent
##version
##vt
##whenever
##yesterday
##zine
actor
adjustment
afected
agent
agoraphobic
ailment
airbnb
aisle
analysis
anyonei
aspire
awakening
backi
bacteria
baker
beans
behaviours
behold
blisfuly
blonde
bonds
broad
cabinet
calculate
cardio
cents
champion
chesy
chiropractor
christianity
codependent
comes
comprehensive
confesion
confidentiality
convert
coperate
coruption
council
counteract
cozy
creation
cremate
critics
crypto
cs
damaging
das
daycare
dec
def
dependency
depresedi
derail
determination
digres
dis
disagrement
dont
dynamic
eastern
efectivenes
eldest
entitled
entity
ep
esa
esophagus
estranged
european
euthanasia
eviction
exced
exces
fitbit
fk
flick
fluter
foi
folower
freway
frown
ge
generate
ghosts
glomy
gloves
gps
grain
grin
guest
guna
hah
handgun
hapening
hardi
hawai
heard
hernia
hiking
horified
hypertension
idiotic
inconsistent
indefinitely
ing
ink
inspirational
institutions
insurmountable
intelectualy
intermitent
invasive
ist
isuesi
itbut
james
jk
joyful
jugle
kal
kindly
kingdom
kutner
lapse
latch
layers
lebaran
lecturer
liberal
lovers
lupus
mani
map
measures
mebut
meso
mit
module
momy
monthsi
moves
moving
mt
mug
ngl
nightime
nitrogen
norms
npc
nut
oblivious
obscure
ofices
overdoses
palpitation
paypal
pende
perfectionist
personel
phrases
pie
placei
predicament
preparation
prescribed
priorities
profound
psx
psychotics
pto
quickest
quotes
radical
rag
rants
rays
registration
regres
repercusions
replaceable
restraining
rewarding
righti
rug
rum
runs
safest
sample
scapegoat
screning
screns
seldom
seperate
sexte
shep
shitier
shortage
sided
sins
ski
slew
smartphone
snort
sores
soup
spinal
spirits
startup
stel
stigmatize
stimulus
stones
stove
substitute
sundays
surprises
tail
tape
television
theories
thiner
thoughtful
tidy
tiping
todayi
top
tornado
tower
transparent
transphobic
transplant
trump
unmanageable
unpack
unpaid
urgency
utility
utilize
verify
wants
wholeheartedly
whyi
widow
worisome
yt
zonaba
##ae
##aging
##ail
##amine
##bc
##bye
##cks
##col
##ctic
##ctive
##culate
##dar
##depresion
##eous
##erate
##ereste
##ering
##ero
##ert
##fect
##ford
##haha
##heat
##hone
##hr
##htpswyoutubecom
##hu
##icient
##idk
##ien
##igo
##ilation
##ils
##ista
##itation
##iters
##lating
##led
##mand
##mbly
##md
##met
##minate
##mine
##nb
##nimate
##nothing
##nsion
##nward
##od
##org
##organize
##organized
##outs
##oy
##pair
##ph
##pin
##pire
##qualtricscomjfeformsv
##quish
##rid
##riminate
##sibly
##space
##sting
##tial
##tile
##tire
##tomy
##uat
##ught
##uicide
##umes
##ump
##unk
##urable
##urger
##usions
##usive
##ved
##veryone
##virus
##wet
##wide
##wish
##would
##xe
##zation
##zone
adolescent
adoption
afirmation
angle
ant
anxiousnes
asumptions
atractivenes
awe
bacterial
bathroms
bilionaire
binary
biternes
bombard
bow
bpi
brace
branch
brazil
brew
bulimia
buterfly
candidate
capitalist
ceo
charger
clog
clumsy
codeine
comic
coming
companion
computers
conscience
constructive
convenience
corporations
coughing
crew
crises
croked
curve
custom
daunting
david
dc
dedicated
defence
delicate
delude
demands
dept
descent
designer
developer
diagnostic
dif
diferentiate
dimension
dishwasher
dispute
divine
dj
dna
downside
dpdr
dril
droping
embed
enforcement
enlarge
erupt
esence
estimate
everyones
experts
falsely
fking
flair
flights
flors
flourish
formulate
fraction
frank
frezer
fuckers
fuke
funily
gaps
gaze
ged
gretings
grogy
hadn
havoc
heavines
hereditary
hiden
homicidal
hyperventilating
hysterical
incoming
inconvenient
indigestion
infuriate
inherit
insights
institutionalize
integrity
intensify
intolerable
intuition
itif
itim
journals
joys
lightheade
likeable
limb
machines
maid
mainstream
males
mam
maxe
medias
meltdowns
menial
mim
multitude
mutuals
nctzen
neglectful
ng
nip
normalize
northern
notices
novels
nudes
nurture
obey
obsesions
opioid
opioids
optimal
ought
out
outer
overanalyze
overshare
oxycodone
pancreatic
panick
peanut
peper
perfectionism
pero
pester
pleased
politicians
pops
prank
preach
preserve
proactive
prod
propaganda
providers
questionaire
quieter
rank
reckon
reconsider
regimen
religiously
remarks
reminisce
remision
removal
render
represed
restriction
revelation
revision
revisit
revolution
rewrite
roted
sadest
saliva
salon
salty
sedate
sexist
shin
shitiest
shiver
sidewalk
significance
simpler
singer
sketchy
slepines
slugish
snri
snugle
soda
specialists
sperm
spons
sponsor
sporadic
sry
stair
stalker
stamps
statements
sth
sticky
stresor
submision
subsequently
subtly
suicidei
sumarize
surveys
sw
taking
taxi
testicles
thath
threads
tia
tik
tobaco
tom
tonsils
topamax
tuck
turns
uglier
uncaring
underage
understatement
unfairly
uninterested
unsucesfuly
upwards
veil
ver
vida
violation
voluntary
voting
waiter
waitres
watchv
withstand
worms
worn
xl
##aire
##ait
##ale
##amp
##ana
##aq
##aries
##ature
##bot
##bu
##cer
##cho
##chy
##cin
##cinate
##cuse
##dal
##edly
##ege
##ening
##eur
##fic
##fied
##fk
##gi
##gina
##grate
##ham
##hanks
##hers
##hibit
##ief
##ience
##inable
##inite
##itory
##iu
##ives
##ker
##lah
##lesnes
##lical
##lics
##lift
##lip
##lk
##lose
##lves
##many
##mer
##nces
##nf
##nide
##nse
##nta
##ntaly
##nvent
##nyway
##ocation
##ode
##olic
##onei
##oud
##ould
##ourse
##overs
##oz
##paper
##pen
##pg
##pi
##play
##pop
##pot
##power
##raine
##rank
##rat
##rden
##rela
##resion
##ribution
##road
##rten
##sate
##shed
##sible
##sitive
##station
##strual
##sty
##sue
##tence
##tful
##thesis
##thin
##thyroidism
##tine
##titis
##tric
##typical
##uality
##ube
##uctive
##ug
##uge
##umber
##uries
##vate
##vations
##veri
##yeah
##yle
abstract
acelerate
acent
acutane
adamant
adhere
afects
afirm
africa
ahold
ainda
amidst
ampe
analyse
ancient
ankles
anorexic
anticipatory
ase
asesments
ashes
asociation
ate
atypical
avid
bafle
balon
basics
beds
behalf
bilions
bleh
botomles
bronchitis
bts
bud
budge
bumer
calendar
carpal
catholic
cba
century
cerebral
chug
cirhosis
clip
coding
cognition
coincide
coisas
colar
colder
colectively
comand
comercial
comfy
compensation
completion
completly
compulsions
condo
conference
congratulate
consistency
contentment
contest
copay
crowds
culprit
cultures
cuter
dancing
daniel
delight
derive
deserving
detriment
dias
dime
disasociation
disguise
diving
donor
dramaticaly
drawer
drinker
dysphoric
eitheri
electronic
electronics
endi
erectile
esays
estate
eternaly
exagerated
exceptionaly
expresions
exs
extraordinary
extroverted
eyebrows
eyed
felony
firmly
flame
for
forced
forcefuly
forces
fotage
frantic
fury
futurei
generations
gente
glands
goin
gr
gradual
grandmas
gratification
grid
grotesque
grounds
gti
guesi
hampers
hary
healthily
helpline
hemorhoids
hiding
hinge
hips
honey
hostage
hungover
hurdle
hustle
hypochondriacs
hystericaly
implement
incesant
incite
index
inflamatory
inflame
ingrain
ins
internships
investigation
iran
jacket
just
ka
lego
lightning
likable
limp
lm
lmk
longi
luckier
magazines
maine
mastery
masturbating
mediocrity
meim
melodramatic
memorable
metabolism
methat
minecraft
minority
miraculous
ml
mn
momentary
momentum
mono
monologue
morphine
mrs
myriad
myth
nerdy
nervousnes
niche
nihilism
nike
npd
nuclear
obv
ode
ol
onei
optional
outs
overprotective
owners
packs
pads
paragraphs
pasage
pasenger
paste
pedo
pelvic
pharmacist
physio
physiological
poly
posesion
pov
pr
precise
premature
presentations
pretier
prolonged
pronouns
pseudo
readily
rebound
reception
recharge
rehabilitation
remedies
representation
requests
resilient
rewards
rifle
risperidone
rpe
runy
sadi
salad
salvation
sarcastic
scope
sdi
sector
selective
sepsis
sets
shitles
shortcomings
sible
slaves
snore
snot
snowbal
socialization
spa
spirals
spiteful
spur
sr
stabing
steak
stepmom
stfu
sticks
strand
sulk
surge
surprising
suspicion
swipe
tab
tactic
tardive
teaser
technician
tenfold
theater
thirties
threshold
torturous
tremor
trol
truely
truths
tu
tudo
turkish
typos
unaceptable
uneven
unfinished
unproductive
untrue
uphil
urination
usd
venture
verse
veteran
visions
warp
wary
washington
whip
wifi
wilingnes
wing
wins
workshop
wrongi
##aches
##af
##afinil
##aple
##ato
##atrist
##azole
##base
##burg
##cape
##cast
##cialy
##cination
##cious
##cism
##ckey
##cracy
##cription
##ctor
##cuous
##dial
##du
##ency
##eption
##ered
##esy
##fa
##fel
##finaly
##funy
##gal
##gence
##genic
##graph
##gue
##gulf
##gure
##gus
##haps
##hd
##hem
##hes
##hoid
##home
##iance
##ibly
##icing
##icke
##ife
##ih
##iki
##inds
##ined
##iously
##itating
##ivable
##jir
##job
##lame
##lan
##ldr
##lect
##lid
##made
##matic
##mination
##mise
##mity
##mother
##mt
##nary
##nauang
##ned
##nesia
##nit
##nolol
##none
##note
##nw
##ocial
##ography
##ogy
##oi
##olam
##once
##open
##opia
##oration
##oses
##ought
##pathic
##pection
##phone
##polar
##ram
##rek
##rey
##rix
##rld
##rosis
##rps
##ruit
##sen
##ses
##sexual
##shi
##shop
##site
##size
##sly
##stin
##tably
##tand
##truction
##uando
##uc
##uda
##uire
##uli
##ulus
##under
##urb
##ured
##urn
##usan
##usy
##utate
##vade
##value
##vc
##verage
##via
##vice
##vitate
##wl
##your
##zi
##ziest
abit
abnormaly
acidently
acomplished
acountability
advil
aids
aimlesly
alpha
amateur
amitriptyline
amo
anal
angels
angina
anus
apendix
arangement
asbestos
ash
ashwagandha
atorney
australian
awkwardnes
babysiter
backstabe
beacuse
biologicaly
bipolaredit
blankets
blogs
blom
blues
bots
boulder
breadwiner
brighter
butons
buzing
caliber
cantu
capabilities
captain
catastrophe
catatonic
cavities
ceremony
charcoal
chater
cheapest
christoph
chunks
climbing
cognitively
comision
comite
comorbid
condemn
condescend
confrontational
conjunction
constipate
contaminate
contents
continent
controversial
courts
cram
craving
crazines
criminals
crok
crunch
dangle
darling
daylight
deadi
dean
deathi
decorate
deductible
definitive
deflate
demais
den
dependant
disapointments
disastrous
discouraged
disintegrate
disney
distinguish
distresing
divorced
dms
dol
dominant
domt
dope
downer
downi
drunken
dumpster
dyskinesia
ecstatic
edible
ef
eighten
element
equip
esp
euthymic
everything
examinations
explanations
extract
festival
fighter
filing
finished
firearm
fires
foam
fotsteps
freakin
fus
gangsta
gestures
glare
gna
gofundme
gram
greasy
grudge
gumies
hairs
harshly
headset
horifying
hound
hover
huby
iceberg
imprison
incitement
indescribable
inexperience
inherent
insta
instruments
integrate
intestinal
itmy
jar
jbjb
journalist
keyboard
kicking
kinder
kit
kitens
knowi
knowledgeable
korean
lamotragine
lane
las
leash
lens
lest
liberating
lifebut
lifespan
lifethe
livingi
lonlines
lowkey
magnify
majors
malnourished
manifestation
manly
materi
meaninglesnes
meits
mentor
mia
micro
milestone
ministers
minuscule
moan
moi
monotonous
mutilate
nbsp
negate
negatives
negotiate
neti
neuro
nos
obedient
operations
org
organizations
outdors
outwardly
overhear
ow
paradox
partnership
patches
payday
pencil
peripheral
persue
photographer
ping
plainly
platforms
plethora
pornography
potasium
powers
practices
predator
predictable
preference
princes
pronounced
rabid
ratio
rebelious
reborn
recreational
refils
remainder
resurface
reunite
revaluate
ripeo
risperdal
rl
rounds
ruger
rumors
rumours
rupture
satan
sc
scarier
schizoid
scof
seats
seclude
secondly
seing
selves
sentiment
shakes
shortest
shroms
sidelines
sixten
skype
sleve
snd
somatic
somethings
specifics
squander
startle
stds
stern
stitches
strap
strings
supervision
supervisors
swamp
swerve
swets
swinge
switzerland
tactics
tan
tantrum
tbtb
td
thatmy
theanine
thi
tires
titrate
tmj
tout
tradition
trailer
transcript
transference
treatable
triedi
underestimate
undermine
underwear
unfold
unimaginable
unlikable
unload
unprofesional
unreachable
urinate
vehicles
vibrate
vibration
volatile
wad
wars
weakneses
weary
wel
wes
whit
wifes
wildly
wipes
wishlist
wity
##ading
##adow
##again
##aments
##anda
##ank
##aram
##asines
##asing
##asy
##athetic
##ators
##bad
##ban
##basicaly
##bd
##bia
##bin
##birth
##bound
##cated
##cations
##cept
##ci
##ciated
##cipation
##cist
##city
##cript
##cts
##cure
##dge
##dreser
##eavement
##ectal
##egent
##elf
##ely
##ench
##enting
##eparable
##erge
##eseable
##few
##formation
##found
##friendly
##gaf
##gan
##gas
##ghter
##gie
##girl
##got
##had
##hensible
##hension
##hetamine
##holy
##iac
##icial
##ician
##icilin
##icle
##idi
##ignant
##ilate
##inem
##inous
##isms
##iter
##ith
##ivation
##ivist
##ivo
##kate
##kep
##lance
##lets
##lexia
##licable
##ligible
##lize
##lor
##lty
##lug
##lush
##medicate
##metrical
##name
##nent
##nity
##nize
##nky
##nley
##nobody
##normal
##nosis
##nr
##nte
##omeone
##ophageal
##oral
##ori
##otic
##otype
##pal
##pecified
##pr
##prazole
##pswreditcom
##rades
##raft
##ran
##raps
##rapy
##ravel
##reas
##ret
##rg
##ricate
##ride
##rism
##rment
##rne
##rnish
##rocious
##rph
##rtification
##rudge
##rx
##sc
##ser
##sic
##tage
##tarian
##tay
##tend
##tentimes
##tia
##tips
##tol
##tom
##torious
##uating
##uba
##ubling
##udle
##ugal
##uity
##ules
##ultural
##uly
##umn
##unce
##unicative
##until
##uo
##ups
##urance
##urer
##uri
##uts
##vage
##verythe
##vi
##voke
##volve
##wan
##want
##was
##wherei
##worke
##wu
##xb
##xbi
##yl
##yline
acetaminophen
aching
acusations
acustomed
ada
adjustments
aesthetic
aflict
aimles
ain
alcoholics
alegations
americans
antagonise
anxietyi
anxiously
apearances
aplaud
apreciative
arogance
asertive
asumption
atainable
atmosphere
audacity
authorize
ava
awards
banana
bcs
bent
bien
bitches
biterswet
blacks
blesed
bmi
boady
bojack
breakups
breze
bumble
bumed
burdensome
calous
canoti
cant
carton
cater
caution
chicago
childcare
cigs
circumstantial
clash
clasify
claustrophobic
clinics
clockwork
clonidine
closing
cocky
combos
comitments
complicate
concerts
consensual
consigo
conventionaly
corners
costly
counts
crackers
cramping
cringey
crown
cruelty
cyclical
cylinder
cystic
dairy
damnit
daysi
demonstrate
derm
detest
dialogue
diets
dimer
diners
dint
disasters
disatisfaction
disatisfied
district
dk
dl
donations
dormat
drawings
dreaming
drone
ds
dy
elevator
emg
encounters
energize
enjoyed
enraged
enzymes
equation
erections
euro
euthanize
eventhough
excedingly
excercise
explanatory
extracuricular
extremly
eyebrow
eyelids
facet
fame
faults
fazer
feces
figuratively
flirty
fomo
foreigner
foremost
forgave
franticaly
fuckup
galaxy
gastroenterologist
gastrointestinal
gcses
gesture
gewon
gland
glimpses
glory
gluten
governments
grader
gril
guardian
guests
guild
habitual
hairline
halo
hals
he
healthiest
heartache
heights
helhole
hitler
hives
hokup
homesick
honeymon
hostel
humility
hunch
hurl
hw
hypocritical
hypotheticaly
hz
ideals
idiots
idle
ilogical
imaging
imposibility
impresed
impresive
inbox
incompatible
indicative
indicator
infected
infertility
ingest
init
intelect
intoxicate
introduction
ipod
irationaly
is
italian
jisung
johny
jonathanrknight
lag
lah
laughable
leme
lemon
lethargy
lgbt
lightheadednes
linear
listener
locked
lone
lovable
lying
maden
malaysia
malicious
materialistic
maturity
maximus
meand
metaphorical
meter
methis
metups
mh
miday
midterm
minimise
misunderstand
moderators
molestation
moly
moneyi
morer
motorbike
museum
nana
nao
nevermind
nick
np
obesity
obgyn
objectives
obligated
oblige
obsesed
om
onwards
oven
overbear
overboard
overeat
overide
overlap
painkiler
palsy
pancreatitis
partum
pasta
paternal
pavement
pawn
peanuts
perceptions
persevere
personi
pilows
pkp
plurk
pope
porch
precisely
prednisone
preocupy
prescriber
presents
preservation
principle
prize
pupils
qualification
quero
raid
ramblings
realities
realizations
reasoni
recording
refresh
rejoice
rel
remeron
repost
resolution
respected
retaliate
richer
rightfuly
roam
roast
sacred
sam
sap
savior
scheduling
scholi
scotland
sed
selfles
sensible
sentimental
shady
shelters
shelves
shitshow
shope
shorts
shufle
sicker
sims
singular
situationi
skeleton
slavery
smokes
snake
snif
sobing
sodium
soni
sorenes
splen
spoiler
stake
stale
starters
stifnes
straighten
straightforward
strides
stufs
sucidal
suis
sumers
sur
suspension
swap
swetheart
swirl
sympathize
sync
tables
talentles
tales
tangent
tangle
tbi
tedious
temazepam
tempo
tent
ter
terminaly
terminate
terors
testimony
thier
thingi
tht
tilt
timer
tm
torso
tramadol
transaction
treadmil
triple
trousers
ts
twets
tx
ulcers
unbearably
unblock
unclean
unease
unfolowe
unfulfiling
unheard
unite
unprepared
unsatisfied
urinary
vaginal
vegas
versions
victimize
visitors
wardrobe
wax
weapons
what
whites
wicked
wimp
yu
##_
